{"a": 0, "b": 1, "c": 2, "d": 3, "e": 4, "f": 5, "g": 6, "h": 7, "i": 8, "j": 9, "k": 10, "l": 11, "m": 12, "n": 13, "o": 14, "p": 15, "q": 16, "r": 17, "s": 18, "t": 19, "u": 20, "v": 21, "w": 22, "x": 23, "y": 24, "z": 25, "ا": 26, "ب": 27, "ت": 28, "ث": 29, "ج": 30, "ح": 31, "خ": 32, "د": 33, "ذ": 34, "ر": 35, "ز": 36, "س": 37, "ش": 38, "ص": 39, "ض": 40, "ط": 41, "ظ": 42, "ع": 43, "غ": 44, "ف": 45, "ق": 46, "ك": 47, "ل": 48, "م": 49, "ن": 50, "ه": 51, "و": 52, "ي": 53, "0": 54, "1": 55, "2": 56, "3": 57, "4": 58, "5": 59, "6": 60, "7": 61, "8": 62, "9": 63, " ": 64, "[UNK]": 65, "[CLS]": 66, "[SEP]": 67, "[MASK]": 68, "[PAD]": 69, " t": 70, "e ": 71, "an": 72, "s ": 73, " ا": 74, "ال": 75, "n ": 76, " a": 77, "th": 78, "on": 79, " i": 80, "at": 81, "he": 82, "in": 83, "d ": 84, "t ": 85, "ti": 86, "ns": 87, "ا ": 88, "ra": 89, " s": 90, "io": 91, "ي ": 92, "re": 93, "la": 94, "is": 95, " o": 96, " m": 97, " م": 98, "nd": 99, "te": 100, "es": 101, "or": 102, "al": 103, "er": 104, " c": 105, "r ": 106, "ar": 107, "st": 108, "ن ": 109, " و": 110, "tr": 111, "me": 112, " e": 113, "y ": 114, "a ": 115, " w": 116, "ea": 117, "l ": 118, "o ": 119, "en": 120, "to": 121, "ic": 122, "le": 123, "ng": 124, "و ": 125, " d": 126, "sl": 127, "ia": 128, "se": 129, "ex": 130, " ب": 131, " f": 132, "co": 133, "si": 134, " ت": 135, "hi": 136, "di": 137, "g ": 138, " ف": 139, "nt": 140, "ل ": 141, "of": 142, "م ": 143, "f ": 144, "ha": 145, "na": 146, "it": 147, " ي": 148, "ما": 149, "لي": 150, "في": 151, "ct": 152, " p": 153, "ت ": 154, " b": 155, " ع": 156, "لا": 157, "ec": 158, "pl": 159, "tu": 160, "ر ": 161, "ان": 162, " h": 163, "لم": 164, " ل": 165, "ta": 166, "ou": 167, "ca": 168, "ni": 169, "as": 170, "xp": 171, "وا": 172, "h ": 173, "un": 174, " ن": 175, "ce": 176, "ها": 177, "om": 178, "ed": 179, "نا": 180, "ma": 181, "ve": 182, "ll": 183, "ur": 184, " ه": 185, " r": 186, "ات": 187, " l": 188, "با": 189, "ش ": 190, "ين": 191, "ab": 192, " ك": 193, "ri": 194, "li": 195, "ch": 196, "د ": 197, "fo": 198, " n": 199, "ss": 200, "ه ": 201, "من": 202, "عل": 203, "m ": 204, "wh": 205, "ار": 206, "ep": 207, "ne": 208, "nc": 209, "ts": 210, "us": 211, "يا": 212, "mo": 213, "de": 214, "ho": 215, "ول": 216, "rd": 217, "c ": 218, "ro": 219, "لل": 220, "را": 221, "ai": 222, "bi": 223, " u": 224, "et": 225, "da": 226, "lo": 227, "pr": 228, "pe": 229, "ب ": 230, "ري": 231, "ع ": 232, "il": 233, "rs": 234, "ني": 235, "i ": 236, "ون": 237, "ot": 238, "لت": 239, "fe": 240, "im": 241, "ul": 242, "ay": 243, "sa": 244, "ام": 245, "ig": 246, "qu": 247, "su": 248, "مع": 249, "be": 250, "اش": 251, "so": 252, "wa": 253, "لو": 254, " ح": 255, "no": 256, "كا": 257, "el": 258, "ك ": 259, "بي": 260, "س ": 261, " y": 262, "ly": 263, "عن": 264, "اس": 265, "دي": 266, " ق": 267, "تو": 268, "ow": 269, "mp": 270, "if": 271, "اد": 272, "ol": 273, "ير": 274, "sh": 275, "am": 276, "لك": 277, "rm": 278, "مل": 279, "ef": 280, "p ": 281, "اع": 282, "em": 283, "نو": 284, "مو": 285, "سي": 286, "ut": 287, "ph": 288, "ad": 289, "هم": 290, "عا": 291, "قا": 292, "اه": 293, " ش": 294, " g": 295, "fr": 296, "ee": 297, "ge": 298, "yo": 299, "xt": 300, "وم": 301, "نت": 302, "ys": 303, "ak": 304, "k ": 305, "ke": 306, "ف ": 307, " ر": 308, "اي": 309, " v": 310, "كل": 311, " س": 312, "دا": 313, "po": 314, "كي": 315, "اب": 316, "لع": 317, "we": 318, "ac": 319, "ui": 320, "لب": 321, "ir": 322, "تا": 323, "ور": 324, "هو": 325, "يه": 326, "wi": 327, "u ": 328, "mi": 329, "by": 330, "do": 331, "fi": 332, "ms": 333, "sp": 334, "لس": 335, " خ": 336, "gh": 337, "لن": 338, "rt": 339, "ry": 340, "لح": 341, "ذا": 342, "oi": 343, "hr": 344, "دو": 345, "ست": 346, "مي": 347, "mm": 348, "يد": 349, "وي": 350, "سا": 351, "لق": 352, "id": 353, "يو": 354, "رو": 355, "مت": 356, "جم": 357, "عد": 358, " ج": 359, "لف": 360, "بر": 361, "gi": 362, "عم": 363, "يل": 364, "wo": 365, "نس": 366, "يم": 367, "او": 368, "pa": 369, "pb": 370, " 1": 371, "bo": 372, "اح": 373, "ق ": 374, "تع": 375, "ap": 376, "iv": 377, "ue": 378, "مر": 379, "يت": 380, "ty": 381, "bu": 382, "ht": 383, "مش": 384, "ie": 385, "حا": 386, "بع": 387, "ey": 388, "يع": 389, "فا": 390, "ند": 391, " د": 392, "يق": 393, "od": 394, "ua": 395, "له": 396, "لد": 397, "قو": 398, "oc": 399, "جا": 400, "cu": 401, "oq": 402, "كو": 403, "هذ": 404, "لج": 405, "هي": 406, "تح": 407, " 2": 408, "ci": 409, "br": 410, "اج": 411, "ff": 412, "تر": 413, "ح ": 414, "يك": 415, "مس": 416, "رب": 417, "اق": 418, "عي": 419, "اك": 420, "ld": 421, "نه": 422, "ته": 423, "خل": 424, "يس": 425, "ft": 426, "وق": 427, "حد": 428, "يف": 429, "os": 430, "w ": 431, "1 ": 432, "fl": 433, "تق": 434, "fu": 435, "بل": 436, "2 ": 437, "تم": 438, "شر": 439, "ug": 440, " ص": 441, "تي": 442, "كن": 443, "ru": 444, "ev": 445, "oo": 446, "op": 447, "pt": 448, "خا": 449, "uc": 450, "nv": 451, "av": 452, "wn": 453, "rn": 454, "يب": 455, "تن": 456, "شي": 457, " 3": 458, "لش": 459, "3 ": 460, " q": 461, "ag": 462, "go": 463, "قي": 464, "بو": 465, "وع": 466, "lt": 467, "اف": 468, "عر": 469, "نج": 470, "شا": 471, "فر": 472, "حي": 473, "bl": 474, " k": 475, "طا": 476, "رج": 477, "حك": 478, "ik": 479, "ei": 480, "زا": 481, "vi": 482, "يح": 483, "حت": 484, "كر": 485, "رك": 486, "اخ": 487, "خر": 488, "nf": 489, "cl": 490, "قد": 491, "قت": 492, "جي": 493, "4 ": 494, "وب": 495, "اط": 496, "سب": 497, "وف": 498, "ga": 499, "رف": 500, "لخ": 501, "اذ": 502, " 4": 503, "rr": 504, "قر": 505, "مه": 506, "تب": 507, "ov": 508, "وه": 509, "fa": 510, "نق": 511, "وت": 512, "ba": 513, "طر": 514, "جو": 515, "ود": 516, "صا": 517, "لر": 518, "لص": 519, "دم": 520, "ds": 521, "ط ": 522, "وس": 523, "حب": 524, "my": 525, "ج ": 526, "زي": 527, "تك": 528, "ki": 529, "كم": 530, "عب": 531, "نح": 532, "gl": 533, "قل": 534, "اص": 535, "سم": 536, "تل": 537, "vo": 538, "tt": 539, "5 ": 540, " ز": 541, "eo": 542, "نع": 543, "مح": 544, "b ": 545, "مك": 546, "ذي": 547, "وج": 548, " غ": 549, "gg": 550, "ls": 551, "طي": 552, "ny": 553, "شو": 554, "در": 555, "صل": 556, "تف": 557, "مم": 558, "tl": 559, " 5": 560, "لط": 561, "lu": 562, "بن": 563, "بد": 564, "تص": 565, "تخ": 566, "pi": 567, "شك": 568, "يش": 569, " the": 570, "the ": 571, "tion": 572, "ion ": 573, "atio": 574, " tra": 575, "rans": 576, "nsla": 577, "and ": 578, " to ": 579, "tran": 580, " and": 581, "ansl": 582, "slat": 583, "lati": 584, "ing ": 585, " in ": 586, " is ": 587, " of ": 588, " mea": 589, "mean": 590, " or ": 591, "lect": 592, "tuni": 593, " ara": 594, "nisi": 595, "rabi": 596, "bic ": 597, " exp": 598, "sian": 599, "stan": 600, "unis": 601, " tun": 602, "isia": 603, "n th": 604, "ect ": 605, " dia": 606, "ans ": 607, "eans": 608, "iale": 609, "his ": 610, "dial": 611, "alec": 612, " thi": 613, "ian ": 614, "this": 615, "rd a": 616, "in t": 617, "anda": 618, "s a ": 619, "dard": 620, "n di": 621, " con": 622, "es t": 623, "s th": 624, "s to": 625, "he t": 626, "an d": 627, "expl": 628, "tes ": 629, "arab": 630, "step": 631, "abic": 632, " sta": 633, "xpla": 634, " it ": 635, "of t": 636, " for": 637, "plan": 638, "hat ": 639, " tha": 640, "anat": 641, "tand": 642, " use": 643, "nati": 644, "is a": 645, "e of": 646, "text": 647, "that": 648, "lana": 649, "ard ": 650, "ndar": 651, " whi": 652, "ext ": 653, "d ar": 654, " com": 655, "late": 656, "e th": 657, "f th": 658, " you": 659, " a c": 660, "ates": 661, "nce ": 662, " ste": 663, "tep ": 664, "e tr": 665, "t th": 666, "e in": 667, "form": 668, "on o": 669, "ng t": 670, " ref": 671, "nal ": 672, "for ": 673, "pres": 674, "sed ": 675, "ress": 676, "he s": 677, "ture": 678, "al t": 679, "you ": 680, "s an": 681, "n st": 682, "d in": 683, "s st": 684, "ure ": 685, "on t": 686, "n tu": 687, "ich ": 688, "hras": 689, " phr": 690, "whic": 691, "a co": 692, "ence": 693, "phra": 694, "ces ": 695, "hich": 696, "rase": 697, "ther": 698, "yste": 699, "ent ": 700, "more": 701, "ore ": 702, "ase ": 703, "tepb": 704, "pbys": 705, " mor": 706, "e or": 707, "ial ": 708, "he p": 709, "ions": 710, " cho": 711, "xpre": 712, "g th": 713, "on c": 714, " fro": 715, "hoic": 716, "cont": 717, "n in": 718, "s co": 719, "ting": 720, "ollo": 721, "on i": 722, "expr": 723, "rom ": 724, " be ": 725, "ons ": 726, " col": 727, "ices": 728, "comm": 729, "use ": 730, "n of": 731, "coll": 732, " tex": 733, "can ": 734, "d th": 735, "an a": 736, "loqu": 737, "quia": 738, "one ": 739, "lloq": 740, "oqui": 741, "uial": 742, "onte": 743, "on a": 744, " can": 745, "from": 746, "byst": 747, "epby": 748, "ple ": 749, "ssio": 750, "sion": 751, "t in": 752, " str": 753, "ns t": 754, "ary ": 755, "essi": 756, "to t": 757, "nd t": 758, "ight": 759, "ning": 760, "ntex": 761, "mmon": 762, "ommo": 763, "on s": 764, "ed t": 765, " not": 766, "here": 767, "ets ": 768, "e co": 769, " wor": 770, "d to": 771, "conv": 772, "oice": 773, " let": 774, "he c": 775, "choi": 776, "orma": 777, "ten ": 778, "word": 779, "is t": 780, "ects": 781, "ere ": 782, " dif": 783, "onal": 784, "sure": 785, "down": 786, "n an": 787, "iffe": 788, "rate": 789, "brea": 790, "s in": 791, "in s": 792, "to a": 793, "ofte": 794, "ften": 795, "her ": 796, "icat": 797, " oft": 798, "rmal": 799, " eng": 800, "used": 801, "inal": 802, "mal ": 803, "e an": 804, "eak ": 805, "onve": 806, "lish": 807, "efer": 808, "re l": 809, "s br": 810, "not ": 811, "cts ": 812, "h is": 813, "wn t": 814, "ngli": 815, "is i": 816, "ish ": 817, "ers ": 818, "ch i": 819, "is c": 820, "orig": 821, "igin": 822, "refe": 823, "k do": 824, "ffer": 825, " a s": 826, "nces": 827, "ain ": 828, "some": 829, " som": 830, " msa": 831, "or t": 832, "diff": 833, "t is": 834, " ind": 835, "o th": 836, "ng i": 837, "se o": 838, "ampl": 839, " inf": 840, "he e": 841, "e tu": 842, "ed i": 843, "engl": 844, "glis": 845, " as ": 846, "indi": 847, "cal ": 848, "ns a": 849, "nd i": 850, "pora": 851, "er t": 852, "are ": 853, " pro": 854, "ave ": 855, "e us": 856, "mon ": 857, "dica": 858, "ndic": 859, "in e": 860, "way ": 861, "rigi": 862, "he o": 863, " ori": 864, "e to": 865, " but": 866, "gina": 867, "with": 868, "y th": 869, " hav": 870, "r th": 871, "e ph": 872, "ment": 873, "r to": 874, "to s": 875, "anin": 876, " are": 877, " spe": 878, "ted ": 879, "es a": 880, "or e": 881, "msa ": 882, "ght ": 883, "thin": 884, "all ": 885, "e is": 886, " wit": 887, " way": 888, "but ": 889, "ng a": 890, "re i": 891, "l to": 892, "c tu": 893, "or a": 894, "e st": 895, "nfor": 896, "ll t": 897, "s or": 898, "own ": 899, "term": 900, "ce o": 901, "for": 902, "s is": 903, "eani": 904, "ts b": 905, "n ch": 906, "fer ": 907, "l ex": 908, " ter": 909, "efle": 910, "t of": 911, "info": 912, "res ": 913, "ile ": 914, "capt": 915, "truc": 916, "ptur": 917, " sur": 918, "out ": 919, "have": 920, "e le": 921, "iona": 922, "l te": 923, "whil": 924, " cap": 925, "esse": 926, " bre": 927, "is p": 928, "ward": 929, "king": 930, "t an": 931, "uld ": 932, "ral ": 933, "y of": 934, "ssen": 935, " ess": 936, "renc": 937, "s ma": 938, " fre": 939, "ord ": 940, " dow": 941, "aptu": 942, "reak": 943, "refl": 944, "flec": 945, "ring": 946, "sati": 947, "ts a": 948, "t or": 949, "voca": 950, "ity ": 951, "lets": 952, "ith ": 953, "hile": 954, "to m": 955, "f tr": 956, " whe": 957, "it i": 958, "ould": 959, "is m": 960, " ex": 961, "ct t": 962, "nd s": 963, "like": 964, "uctu": 965, " sim": 966, "ersa": 967, "ctio": 968, "lary": 969, "e ex": 970, "bula": 971, " bot": 972, "cabu": 973, "ate ": 974, "rect": 975, "nver": 976, "uanc": 977, "en i": 978, " sen": 979, "he w": 980, "at t": 981, "oth ": 982, " int": 983, "rwa": 984, "r in": 985, "hing": 986, "dire": 987, "r ex": 988, "in m": 989, "or i": 990, "he i": 991, "ses ": 992, "al e": 993, "al a": 994, "ak d": 995, "spec": 996, "both": 997, "is s": 998, "fica": 999, " ver": 1000, "ciat": 1001, "s of": 1002, " dir": 1003, "irec": 1004, "senc": 1005, "es o": 1006, "vs ": 1007, " ما ": 1008, "vers": 1009, " her": 1010, "ver": 1011, "tain": 1012, "tone": 1013, "fere": 1014, "ly u": 1015, "e di": 1016, "erm ": 1017, "cate": 1018, "ual ": 1019, " في ": 1020, "t v": 1021, "its ": 1022, "al c": 1023, "on 1": 1024, "t it": 1025, "ures": 1026, "unci": 1027, "he u": 1028, "day ": 1029, " pre": 1030, "n en": 1031, "y in": 1032, " lik": 1033, "to e": 1034, "lly ": 1035, "red ": 1036, "sent": 1037, "n or": 1038, "ns i": 1039, " its": 1040, "comp": 1041, "e re": 1042, " cul": 1043, "impl": 1044, "n ar": 1045, "re c": 1046, "ultu": 1047, "ep t": 1048, "re t": 1049, " ton": 1050, "h th": 1051, " imp": 1052, "ill ": 1053, "ly t": 1054, "inco": 1055, "l an": 1056, "t wh": 1057, "on w": 1058, " he ": 1059, "ts t": 1060, "e wh": 1061, "eral": 1062, "n 1 ": 1063, "he d": 1064, " eve": 1065, "nifi": 1066, " emp": 1067, " a p": 1068, "many": 1069, "translat": 1070, " transla": 1071, "slation ": 1072, "tunisian": 1073, " dialect": 1074, " arabic ": 1075, "nslation": 1076, "standard": 1077, " this ": 1078, "sian dia": 1079, "dard ara": 1080, " tunisia": 1081, "n dialec": 1082, "unisian ": 1083, " standar": 1084, "d arabic": 1085, "ndard ar": 1086, "means ": 1087, "isian di": 1088, "ranslati": 1089, "dialect ": 1090, " the tra": 1091, " of the ": 1092, " in tuni": 1093, " explana": 1094, "lanation": 1095, " stepbys": 1096, "pbystep ": 1097, "ian dial": 1098, " means": 1099, "explanat": 1100, "anation ": 1101, "arabic": 1102, " from ": 1103, "tion of ": 1104, "rabic ": 1105, "slates t": 1106, "nslates ": 1107, "in tunis": 1108, "andard a": 1109, "rd arabi": 1110, " that ": 1111, "s break ": 1112, " lets br": 1113, "down the": 1114, "eak down": 1115, "sure let": 1116, "es to ": 1117, " colloqu": 1118, "loquial ": 1119, "the tran": 1120, "original": 1121, "phrase": 1122, "ation ": 1123, "differ": 1124, "english ": 1125, "alect ": 1126, "lation c": 1127, " informa": 1128, "choices ": 1129, " often": 1130, "verb ": 1131, " phrase ": 1132, " which i": 1133, " express": 1134, "on choic": 1135, "ion of t": 1136, "tion ste": 1137, " verb ": 1138, "meaning ": 1139, "of trans": 1140, "porates ": 1141, " more ": 1142, "tandard ": 1143, "vocabula": 1144, "bulary": 1145, "conversa": 1146, "ersation": 1147, " is a co": 1148, "expressi": 1149, "ion choi": 1150, " in stan": 1151, "ard arab": 1152, "ing the ": 1153, " context": 1154, "e transl": 1155, "unciatio": 1156, " essence": 1157, "hasi": 1158, "lloquial": 1159, "s and ": 1160, "which is": 1161, "anslatio": 1162, "the orig": 1163, "tes to": 1164, " meaning": 1165, " of tran": 1166, "nglish": 1167, "would ": 1168, "s the ": 1169, " word ": 1170, "emph": 1171, "phas": 1172, " this is": 1173, " reflect": 1174, "context ": 1175, " indicat": 1176, "ly used ": 1177, " while": 1178, "thing ": 1179, "ational ": 1180, " empha": 1181, " would": 1182, "k sure": 1183, " which": 1184, "ed to ": 1185, " structu": 1186, " the ess": 1187, "uld be": 1188, "can be": 1189, "captures": 1190, "the tuni": 1191, "sian ara": 1192, "an diale": 1193, "a colloq": 1194, " can be ": 1195, "often ": 1196, "gether": 1197, "nisian d": 1198, "ialect": 1199, " is a ": 1200, "ample ": 1201, "which ": 1202, " differe": 1203, " text ": 1204, "pron": 1205, "s standa": 1206, "n and ": 1207, " might": 1208, "ilar": 1209, "ence of ": 1210, "might ": 1211, "mila": 1212, "simi": 1213, "the phra": 1214, " means t": 1215, " convers": 1216, "versatio": 1217, "this is ": 1218, "s tran": 1219, "in stand": 1220, "main": 1221, " exampl": 1222, "essence ": 1223, "toge": 1224, "ting it ": 1225, " sure le": 1226, "ival": 1227, " down th": 1228, " step ": 1229, "en use": 1230, "gation": 1231, "quiv": 1232, "ts break": 1233, "e lets b": 1234, "reak dow": 1235, "inal tex": 1236, " both ": 1237, "hoices": 1238, " differ ": 1239, "ms to ": 1240, " for ex": 1241, "utting": 1242, "mode": 1243, "dern": 1244, "feel": 1245, "mmary ": 1246, "now ": 1247, " in engl": 1248, "ething": 1249, " common ": 1250, "tance ": 1251, "rn sta": 1252, "alent ": 1253, "ould be ": 1254, "stepbyst": 1255, "ures the": 1256, "tion the": 1257, "nifica": 1258, " conve": 1259, "forward": 1260, "n standa": 1261, "s mean": 1262, "ja ": 1263, " the phr": 1264, " fee": 1265, "iz": 1266, "step 1": 1267, "asual ": 1268, "n the tr": 1269, " the tun": 1270, "convey": 1271, "abic msa": 1272, "colloqui": 1273, "all to": 1274, "somethin": 1275, "what": 1276, " 1 tra": 1277, " it all ": 1278, "t text": 1279, "cant": 1280, " rep": 1281, " over": 1282, "e use of": 1283, "rpora": 1284, " in both": 1285, "casu": 1286, "this tra": 1287, "se of ": 1288, "nisian a": 1289, " simil": 1290, "an arabi": 1291, "ruct": 1292, " somet": 1293, "ying ": 1294, "used in ": 1295, " 2 exp": 1296, "aims": 1297, "pers": 1298, "verall ": 1299, " vs st": 1300, "2 expl": 1301, "indicate": 1302, "epbystep": 1303, "overal": 1304, "lect v": 1305, " origina": 1306, " form ": 1307, "ix": 1308, "direct": 1309, "1 tran": 1310, " use of ": 1311, "siz": 1312, "ation an": 1313, " su": 1314, " in the ": 1315, "ion capt": 1316, " as": 1317, "s word": 1318, "essions ": 1319, "about ": 1320, " msa for": 1321, "exampl": 1322, "intain": 1323, "ion ai": 1324, "stru": 1325, "tional": 1326, "n tunisi": 1327, "ontext": 1328, "informal": 1329, "sk ": 1330, "pical ": 1331, " used in": 1332, "also": 1333, " you hav": 1334, " say": 1335, "where ": 1336, "if you": 1337, "is a col": 1338, " have ": 1339, "nder": 1340, "ition ": 1341, "ation st": 1342, "erall ": 1343, "spea": 1344, "dialects": 1345, " be tran": 1346, "in engli": 1347, "vs stan": 1348, "for ex": 1349, "unde": 1350, " the use": 1351, "b form": 1352, "c tunisi": 1353, "m mo": 1354, "rabic tu": 1355, "n stepby": 1356, "common": 1357, "tly ": 1358, " and the": 1359, "que ": 1360, "ther the": 1361, "means to": 1362, "riginal ": 1363, " with ": 1364, "ders": 1365, "he origi": 1366, "nslated ": 1367, " voc": 1368, "nunci": 1369, " may": 1370, "may ": 1371, "er fro": 1372, "tep step": 1373, "asi": 1374, "hoices t": 1375, "need": 1376, "ect vs ": 1377, "lect oft": 1378, "cult": 1379, "ega": 1380, " ass": 1381, "this mea": 1382, "the ver": 1383, " in this": 1384, " ad": 1385, "ques": 1386, "eel ": 1387, "ntly": 1388, " ne": 1389, "uest": 1390, "ask ": 1391, "ar to ": 1392, " que": 1393, " where": 1394, "lects ": 1395, " english": 1396, "equ": 1397, "kno": 1398, "of the o": 1399, "d stan": 1400, " pron": 1401, "aint": 1402, "e tunisi": 1403, "reflects": 1404, "l the ": 1405, "ion 1 ": 1406, "a this": 1407, "ness": 1408, "all the ": 1409, "onunci": 1410, "abul": 1411, "ocab": 1412, "ulary ": 1413, " term ": 1414, " what ": 1415, "ement ": 1416, " fur": 1417, "ch is ": 1418, "cture ": 1419, " if ": 1420, "ical": 1421, "urther": 1422, "nse of": 1423, "e a ": 1424, "stance": 1425, "ion the ": 1426, "use of": 1427, "el fre": 1428, "lso ": 1429, "ista": 1430, "e to a": 1431, " free to": 1432, "lar to": 1433, " or ne": 1434, "t the ": 1435, " cas": 1436, "es tunis": 1437, "ed f": 1438, "tep tran": 1439, "t diff": 1440, " means i": 1441, "ncor": 1442, "orpora": 1443, "ffi": 1444, " nee": 1445, " to as": 1446, "sens": 1447, "l and ": 1448, " formal ": 1449, " used ": 1450, "be tra": 1451, "ever": 1452, " nuanc": 1453, "ormal ": 1454, " used to": 1455, "nega": 1456, "al tone ": 1457, "bic tuni": 1458, "ther a": 1459, "you have": 1460, "xpressio": 1461, " und": 1462, " the ver": 1463, "ypi": 1464, "formal": 1465, " the s": 1466, "poke": 1467, "ression ": 1468, "ry and": 1469, "e the ": 1470, " we ": 1471, "eed ": 1472, "m stan": 1473, "yday ": 1474, "ssis": 1475, "oder": 1476, "will": 1477, "iqu": 1478, "fer from": 1479, "al expre": 1480, "ull ": 1481, "uring ": 1482, "f you ": 1483, " ful": 1484, "dition": 1485, "eone": 1486, " to the ": 1487, "used to ": 1488, "zes t": 1489, " mak": 1490, "ormal an": 1491, "t and ": 1492, "free": 1493, "uni": 1494, "specif": 1495, " ins": 1496, " ty": 1497, " a commo": 1498, "god ": 1499, "nce fe": 1500, "ern st": 1501, "the use ": 1502, " capture": 1503, "bout": 1504, "nly u": 1505, "eake": 1506, " direct ": 1507, "nce of t": 1508, "لله ": 1509, "bystep t": 1510, "l tran": 1511, " one": 1512, "ep trans": 1513, "tive": 1514, "l fr": 1515, "erso": 1516, " refers ": 1517, "lation 1": 1518, "the esse": 1519, "ee to ": 1520, "الله": 1521, "in this ": 1522, "ample th": 1523, "ific": 1524, " the inf": 1525, "ed as ": 1526, "tain the": 1527, "nuanc": 1528, "sig": 1529, " how": 1530, "o engl": 1531, " by ": 1532, "ces tuni": 1533, " mod": 1534, " someo": 1535, " is more": 1536, "ature ": 1537, "umm": 1538, "jus": 1539, "put": 1540, "al and": 1541, "m the ": 1542, " uni": 1543, "ferences": 1544, " god": 1545, " لا ": 1546, " to ma": 1547, "being ": 1548, " per": 1549, " rel": 1550, "ess ": 1551, "niqu": 1552, "have a": 1553, "stions": 1554, "ing": 1555, " als": 1556, "c msa ": 1557, "uances o": 1558, "furt": 1559, "estion": 1560, "rther ": 1561, "olloquia": 1562, "refers": 1563, "this wor": 1564, "n used": 1565, "etit": 1566, "repe": 1567, "rs to ": 1568, "ly in ": 1569, " الم": 1570, " ال": 1571, " من ": 1572, "ه ال": 1573, " في ال": 1574, " الل": 1575, " عل": 1576, "في ا": 1577, "ن ال": 1578, "للي ": 1579, "اللي": 1580, " الا": 1581, "ت ال": 1582, " بال": 1583, "ا ال": 1584, " الع": 1585, " الح": 1586, " الت": 1587, " كان": 1588, "ي ال": 1589, " الك": 1590, " الب": 1591, "ل ال": 1592, " وال": 1593, "و ال": 1594, "ر ال": 1595, "م ال": 1596, " الس": 1597, " عند": 1598, "ع ال": 1599, "د ال": 1600, " الن": 1601, "كان ": 1602, " باش": 1603, "ك ال": 1604, "باش ": 1605, " و ا": 1606, "الح": 1607, " هو ": 1608, " الد": 1609, "الم": 1610, " الج": 1611, "تها ": 1612, " يا ": 1613, " الف": 1614, " علي": 1615, " متا": 1616, " هاذ": 1617, "ده ": 1618, " فيه": 1619, "ات ا": 1620, " ولا": 1621, " بر": 1622, "من ا": 1623, "ره ": 1624, " كيف": 1625, " الق": 1626, "ها ا": 1627, "بش ": 1628, "ب ال": 1629, "يها ": 1630, "وش ": 1631, "ligh": 1632, "خدم": 1633, "س ال": 1634, " معن": 1635, " مع ": 1636, " الش": 1637, "نا ا": 1638, " الو": 1639, " حت": 1640, "غير": 1641, " الص": 1642, "الص": 1643, "ما ت": 1644, "ثلا": 1645, "ما ي": 1646, " بش ": 1647, "عمل ": 1648, " الر": 1649, "عند": 1650, " الله ": 1651, " هي ": 1652, " كل ": 1653, "ولا ": 1654, "ي ما": 1655, "بعد ": 1656, "ه في": 1657, "الكل": 1658, " قال": 1659, "ا في": 1660, "لها ": 1661, "اني ": 1662, "معنا": 1663, "نا ن": 1664, "00": 1665, " الخ": 1666, "ما ن": 1667, "ها و": 1668, "نين ": 1669, "كون ": 1670, "متاع": 1671, "تاع ": 1672, "عليه": 1673, "الس": 1674, " والله": 1675, "ف ال": 1676, " مش ": 1677, "از": 1678, " ث": 1679, "نا م": 1680, "اها ": 1681, "به ": 1682, "انت ": 1683, "l text": 1684, " خاط": 1685, "ثر ": 1686, "مشي ": 1687, "الف": 1688, "عه ": 1689, "انا ": 1690, " حاج": 1691, " بعد": 1692, "تونس": 1693, "ش ن": 1694, "ربي ": 1695, "حنا": 1696, "يه ا": 1697, "فهم": 1698, "ليوم": 1699, "نا و": 1700, "ا ما": 1701, "ش ال": 1702, "ي في": 1703, "كهو": 1704, " ط": 1705, " مر": 1706, "احد ": 1707, "واحد": 1708, "والله ": 1709, "حاج": 1710, "ghting": 1711, "لاث": 1712, " هذا": 1713, "لي ا": 1714, "لكل ": 1715, " الي": 1716, "زم ": 1717, "ها م": 1718, " وقت": 1719, "لي ي": 1720, "اطر ": 1721, "نف": 1722, "ences ": 1723, " قلت": 1724, "اهي ": 1725, "وز": 1726, "لوا ": 1727, "ان ا": 1728, "الخ": 1729, "ق ال": 1730, "ت في": 1731, "نك ": 1732, "high": 1733, " باه": 1734, "وما ": 1735, "ليه ": 1736, "اض": 1737, " hig": 1738, "عرف": 1739, "ناس ": 1740, "عناه": 1741, " كي ": 1742, "قول ": 1743, "كث": 1744, "ين ا": 1745, "هذا ": 1746, "ting the": 1747, " واح": 1748, "يما ": 1749, "دخل": 1750, "قه ": 1751, "تش ": 1752, "اش ن": 1753, "جه ": 1754, " رو": 1755, "نهار": 1756, "الع": 1757, "هار ": 1758, "خص": 1759, "وا ا": 1760, "رش": 1761, "ناها": 1762, "هاذا": 1763, "لز": 1764, "اش ت": 1765, "لي ت": 1766, "igh": 1767, " نها": 1768, "اش ي": 1769, "هم ا": 1770, "ونس ": 1771, "فيها": 1772, "ما ا": 1773, "ما ع": 1774, "شوف ": 1775, "العا": 1776, "ه ما": 1777, "هر ": 1778, " مو": 1779, " تون": 1780, "ح ال": 1781, "ي با": 1782, "الش": 1783, "وض": 1784, "النا": 1785, "hli": 1786, " معا": 1787, "ها ب": 1788, " انا": 1789, "ghli": 1790, " الط": 1791, "اذا ": 1792, "ه وا": 1793, "فيه ": 1794, "يوم ": 1795, "ا با": 1796, "عني ": 1797, "الج": 1798, " عمل": 1799, "طلع": 1800, "نا ب": 1801, " ض": 1802, "ادي ": 1803, " عاد": 1804, "ض ا": 1805, "نجم ": 1806, "لغ": 1807, " فهم": 1808, " شي ": 1809, " انت": 1810, "باح ": 1811, "رض": 1812, "ل في": 1813, "ن في": 1814, "يه و": 1815, "شنو": 1816, "يات ": 1817, "باهي": 1818, "بير ": 1819, "حه ": 1820, "الث": 1821, "دار ": 1822, " شنو": 1823, "عطي": 1824, "ه من": 1825, "تعمل": 1826, "لام ": 1827, "ween": 1828, "ه با": 1829, "مد": 1830, "لناس": 1831, "يخ": 1832, " ربي": 1833, "مد ": 1834, " و ": 1835, "لث": 1836, "20": 1837, "كيف ": 1838, "قبل": 1839, "توا ": 1840, "ها ": 1841, "نص": 1842, "ر في": 1843, "و في": 1844, " ما": 1845, "رات ": 1846, " توا": 1847, "ط ال": 1848, "فاش ": 1849, "عرف ": 1850, "ني ا": 1851, "كيفا": 1852, "عض": 1853, " تو ": 1854, "بح": 1855, "وقت ": 1856, "ينا ": 1857, " مال": 1858, "فما": 1859, "لي م": 1860, "قعد": 1861, "قص": 1862, "حم": 1863, "عاد": 1864, "نعمل": 1865, "يجي": 1866, " شوي": 1867, " بع": 1868, "الي ": 1869, " علا": 1870, "خير": 1871, "نظ": 1872, "نيا ": 1873, " 20": 1874, "حوا": 1875, "لات ": 1876, " تح": 1877, "while ": 1878, "خرج ": 1879, "01": 1880, "مال ": 1881, " وين": 1882, "الد": 1883, "تني ": 1884, "المر": 1885, "ين و": 1886, "ار ا": 1887, "ما ": 1888, " نحب": 1889, "ي ن": 1890, "نا ": 1891, "ا ب": 1892, "مث": 1893, "into t": 1894, "المو": 1895, "نات ": 1896, "يهم ": 1897, " اح": 1898, "ز ا": 1899, "طبي": 1900, " فما": 1901, "البا": 1902, "نعرف": 1903, "لا ا": 1904, "ش ما": 1905, " confi": 1906, "ديد ": 1907, "ضرب": 1908, "بت ": 1909, "في ب": 1910, "فس ": 1911, "وك ": 1912, "الر": 1913, "ي عل": 1914, "هم و": 1915, "الط": 1916, "برش": 1917, "الك": 1918, "بين ": 1919, "صغ": 1920, " نعم": 1921, "يفاش": 1922, "ها ت": 1923, "fide": 1924, "وح": 1925, "لنا ": 1926, "انه ": 1927, "لي ه": 1928, "ول ا": 1929, "بط ": 1930, "كبي": 1931, "ر من": 1932, "ش ت": 1933, "لي ب": 1934, "ضي ": 1935, " و م": 1936, "المس": 1937, "دك ": 1938, " بلا": 1939, " نعر": 1940, "ي و ": 1941, "همت ": 1942, " هذ": 1943, "لي ": 1944, " هكا": 1945, " نح": 1946, "و ما": 1947, "تين ": 1948, "رشا": 1949, "dent": 1950, "طلب": 1951, "بير": 1952, "الق": 1953, "لوس ": 1954, "ندي ": 1955, "قيق": 1956, "نيه ": 1957, "اع ا": 1958, " است": 1959, "في م": 1960, "gra": 1961, "ا ن": 1962, "سر": 1963, "الت": 1964, "نها ": 1965, "ا عل": 1966, "هو ا": 1967, " عال": 1968, "اليو": 1969, "ولي ": 1970, "to the t": 1971, " bet": 1972, "خي ": 1973, "برشا": 1974, " يعن": 1975, "ظه": 1976, "و و ": 1977, " و ي": 1978, "ات و": 1979, "ذا ا": 1980, "عندي": 1981, "نا ع": 1982, " نف": 1983, " ان": 1984, "لي ع": 1985, "ت عل": 1986, "زيد ": 1987, "هب": 1988, "دها": 1989, "رت ": 1990, "شوي": 1991, "مض": 1992, "الب": 1993, "يعني": 1994, "خاطر": 1995, "ي وا": 1996, "ون ا": 1997, " و ت": 1998, " راه": 1999, "شوف": 2000, " قبل": 2001, "ه مع": 2002, "هر": 2003, "بط": 2004, "اذي ": 2005, "م في": 2006, "مع ا": 2007, " بين": 2008, "الا ": 2009, "ن ما": 2010, "ليل ": 2011, " j": 2012, "ثني": 2013, "تس": 2014, "موش ": 2015, "ا و ": 2016, "ي ب": 2017, "etwe": 2018, "اهو ": 2019, "حكي ": 2020, "السي": 2021, "ير م": 2022, "التو": 2023, "ي مع": 2024, " تعر": 2025, "ير ا": 2026, "قلتل": 2027, " لكن": 2028, "خذ": 2029, " ياخ": 2030, "اس ا": 2031, "ه عل": 2032, " زاد": 2033, "الما": 2034, "الدا": 2035, "نحكي": 2036, "وني ": 2037, "تعرف": 2038, "ن و ": 2039, "nical ": 2040, "conf": 2041, "لاز": 2042, "سر ": 2043, "صح": 2044, "رح ": 2045, "تهم ": 2046, "فض": 2047, "عليك": 2048, "نمش": 2049, "وا م": 2050, "مات ": 2051, "د ما": 2052, "ه و": 2053, " غير": 2054, " يقو": 2055, "هنا": 2056, "ات م": 2057, "لا م": 2058, "الن": 2059, "التل": 2060, "يلو ": 2061, "يض": 2062, "يقول": 2063, "تاع": 2064, "يا ب": 2065, "سمع ": 2066, " ان ": 2067, "ني و": 2068, "ص ا": 2069, "wer ": 2070, "nswe": 2071, " ans": 2072, " اللي ": 2073, " quest": 2074, "stion ": 2075, "question": 2076, "طو": 2077, "جمل": 2078, "swe": 2079, " الجمل": 2080, " برش": 2081, "اني": 2082, "مكن ": 2083, "ans": 2084, "كثر ": 2085, "جاب": 2086, "ذلك": 2087, "خط": 2088, "علوم": 2089, "ذا كان": 2090, "شكل ": 2091, "ختل": 2092, "fy ": 2093, "الي": 2094, "ضي": 2095, "يجا": 2096, " كانت ": 2097, "ات الم": 2098, " يمك": 2099, "كانت": 2100, "iy": 2101, "جموع": 2102, "يارات ": 2103, " كيما ": 2104, "ion شنو": 2105, " 7": 2106, " الث": 2107, " من ال": 2108, "ذكر": 2109, "يكون": 2110, " باش ي": 2111, "جابي": 2112, "تلف": 2113, "رضي": 2114, " 19": 2115, " بالتونس": 2116, "تحد": 2117, " صحي": 2118, "مريك": 2119, " ذ": 2120, "حيح": 2121, "19": 2122, " للم": 2123, " الخط": 2124, "تونسي ": 2125, "عطا": 2126, "uage": 2127, "تكون": 2128, " من الم": 2129, "y l": 2130, "uw": 2131, "ديد": 2132, "راج": 2133, " لاز": 2134, " نجم": 2135, " باش ت": 2136, "lite": 2137, "وص": 2138, "شخص": 2139, "كتب": 2140, "فرض": 2141, "unsi": 2142, "terate": 2143, "ish in t": 2144, "نط": 2145, "rated to": 2146, "in trans": 2147, "ransli": 2148, "si بال": 2149, "d toun": 2150, "تش": 2151, " لل": 2152, "ouw": 2153, "يمكن": 2154, " 9": 2155, " عن ": 2156, "من ": 2157, "دث": 2158, "كبر": 2159, "يلم ": 2160, "صحيح": 2161, "tion شنو": 2162, "lm": 2163, "هالم": 2164, " المع": 2165, " هذي ": 2166, " تنجم ": 2167, "دد ال": 2168, "في ": 2169, "معلو": 2170, "مخ": 2171, " الخيا": 2172, "ثان": 2173, "طق": 2174, "لبي": 2175, "دد ": 2176, "يز": 2177, " مخ": 2178, "ختا": 2179, "يسي": 2180, "ومات": 2181, "لومات ": 2182, "غم ": 2183, "ازم ": 2184, "ي ت": 2185, "لجمل": 2186, "جاوب": 2187, "ثير": 2188, " بما ": 2189, " متاع": 2190, " متاع ال": 2191, "تنجم": 2192, "طريق": 2193, "ليزي": 2194, "99": 2195, "نغ": 2196, "ينجم": 2197, "تج": 2198, "نهم ": 2199, " خلا": 2200, " هاذي ": 2201, "نجلي": 2202, " تص": 2203, " اخ": 2204, " وهذا ": 2205, " يكون ": 2206, "من الم": 2207, " تم ": 2208, " المعل": 2209, "جموا": 2210, " كبير": 2211, " مست": 2212, " الغ": 2213, " بشك": 2214, "ya ": 2215, "تجا": 2216, "yy": 2217, "ات ": 2218, "جرب": 2219, " تكون ": 2220, "جر": 2221, "dh": 2222, "yn ": 2223, "فضل ": 2224, "وا ": 2225, "صير": 2226, "جتم": 2227, "تغ": 2228, " فر": 2229, "جود": 2230, "اجع": 2231, "uw ": 2232, "مقا": 2233, "يكي": 2234, " كانت ال": 2235, "اث": 2236, "قدم": 2237, "سبب ": 2238, "عمال": 2239, "ستنت": 2240, "رق": 2241, "يث": 2242, "هد": 2243, " مث": 2244, "عروف": 2245, " بنا": 2246, " موش ": 2247, " خط": 2248, "dy": 2249, " مما ي": 2250, "هل ": 2251, "طور": 2252, "ضاف": 2253, "رغ": 2254, "مج": 2255, "يين": 2256, "خلال": 2257, "باشر": 2258, "mt": 2259, "قال ": 2260, " اسم": 2261, " الفرض": 2262, "في الم": 2263, " fy ": 2264, "قال": 2265, " عد": 2266, "كثر من": 2267, "ترجم": 2268, "مجم": 2269, " خاطر ": 2270, "جع": 2271, "صف": 2272, "قط": 2273, "نجمش": 2274, "دين": 2275, "gua": 2276, "ل عل": 2277, "نتج ": 2278, " هل ": 2279, "طوا": 2280, "ang": 2281, "جل ": 2282, " lan": 2283, " واحد ": 2284, "ب عل": 2285, "l3": 2286, "بار": 2287, "وا ن": 2288, " 6": 2289, "الخط": 2290, "l7": 2291, "جز": 2292, "كس": 2293, " شخص": 2294, "ومات ا": 2295, "قار": 2296, " التالي ": 2297, "الجمل": 2298, "ضوع": 2299, "خيا": 2300, "t3": 2301, "ال الت": 2302, "نه ي": 2303, "خصي": 2304, "جه": 2305, " الز": 2306, " خاص": 2307, "رد ": 2308, "واب ": 2309, "رق ": 2310, "فيلم": 2311, " هالم": 2312, "3m": 2313, " جمل": 2314, "بشك": 2315, " السيا": 2316, "بق": 2317, " المست": 2318, "يص": 2319, "lk": 2320, "غني": 2321, "عالم": 2322, "جم ت": 2323, " نفس ال": 2324, "بالت": 2325, "up ": 2326, "bch": 2327, " متاع ": 2328, " للت": 2329, "رس": 2330, "دف": 2331, "نوا ": 2332, " في ها": 2333, " الجوا": 2334, " ما نج": 2335, "قييم": 2336, " بعد ما ": 2337, " سلب": 2338, "عوا": 2339, " وت": 2340, " ينجم ": 2341, "بال": 2342, "ساسي": 2343, "جع ": 2344, " حسب": 2345, "تشا": 2346, "وا ي": 2347, "عملي": 2348, "م من": 2349, "يغ": 2350, "حس": 2351, "يطا": 2352, "iy ": 2353, " الفيل": 2354, "تعلق": 2355, "lang": 2356, " في 1": 2357, "ات ت": 2358, " باش ن": 2359, "يج": 2360, " المرا": 2361, "ين ي": 2362, "ck ": 2363, "l9": 2364, "وب عل": 2365, "عتب": 2366, "كتو": 2367, "ساعد": 2368, "l2": 2369, "صف ": 2370, "يار ": 2371, "10": 2372, "غي": 2373, "n the ": 2374, " تو": 2375, "بعض": 2376, "ngua": 2377, " عام": 2378, "عط": 2379, " ممك": 2380, "مبا": 2381, "سط": 2382, "wr ": 2383, "ml ": 2384, "ر عل": 2385, "دار": 2386, "جود ": 2387, " معل": 2388, " موجو": 2389, "mn ": 2390, "شف": 2391, " was": 2392, "زاد": 2393, " في الجم": 2394, "د في": 2395, "سون": 2396, "اريخ": 2397, " من": 2398, " مقا": 2399, "غري": 2400, " الاست": 2401, "شمل": 2402, " الشخص": 2403, "فريق": 2404, " المقا": 2405, "رار": 2406, " مهم": 2407, " نست": 2408, "وروب": 2409, "تض": 2410, "دام ": 2411, "نفس ال": 2412, "حل": 2413, "تار ": 2414, "موجو": 2415, "ياض": 2416, " يست": 2417, "طعم": 2418, "yr ": 2419, "دل ": 2420, " يعني ": 2421, " دول": 2422, "فتر": 2423, "بات ": 2424, "ات ال": 2425, "نز": 2426, " him": 2427, "عور": 2428, "طفا": 2429, "رن": 2430, "سن": 2431, "تط": 2432, " فيها ": 2433, "نتاج": 2434, " مشا": 2435, "قاعد": 2436, "فعل": 2437, "مص": 2438, "ول ": 2439, "تماع": 2440, "ساس ": 2441, "مكان": 2442, " عن ال": 2443, "كس ": 2444, "شار": 2445, "مدين": 2446, "بنا": 2447, " his": 2448, "صول": 2449, " الض": 2450, "ر لل": 2451, "ستعم": 2452, "ات اللي ": 2453, " 201": 2454, "فكر": 2455, "rou": 2456, "صور": 2457, "مراج": 2458, "wm ": 2459, "ثاني ": 2460, " ch": 2461, "شارك": 2462, " وحد": 2463, "w7": 2464, "منط": 2465, "كد ": 2466, " تش": 2467, " ملي": 2468, "him ": 2469, "جم ي": 2470, "لعب ": 2471, "لازم ": 2472, "yh ": 2473, "98": 2474, " تقول ": 2475, " تت": 2476, "sy": 2477, " جدي": 2478, " صغير": 2479, " لذ": 2480, "mch": 2481, "عليم": 2482, "ter ": 2483, "ظ عل": 2484, "خاص": 2485, "شير ": 2486, "اعد": 2487, " سيا": 2488, "سن ": 2489, "tch": 2490, "صيل": 2491, "وري": 2492, "دين ": 2493, "دف ": 2494, "جن": 2495, "كانو": 2496, "ouw ": 2497, " 8": 2498, "wl ": 2499, "لال ": 2500, " يلز": 2501, "مبر": 2502, "ملي": 2503, "وصل": 2504, " الصحي": 2505, " مبا": 2506, "موض": 2507, "w9": 2508, " مع": 2509, " قص": 2510, "rk ": 2511, "ستخدم": 2512, "يوان": 2513, "m3": 2514, " مجم": 2515, "تج ": 2516, " التال": 2517, "ناسب": 2518, "ارات": 2519, "ي لل": 2520, "wor": 2521, " العالم": 2522, " فيل": 2523, "ظام": 2524, "حظ": 2525, "yd ": 2526, "ثلاث": 2527, "قع ": 2528, "ريق ": 2529, " كان ي": 2530, "was ": 2531, "ch y": 2532, "ما في": 2533, "ممكن": 2534, "نسي": 2535, "لبوم": 2536, " باس": 2537, "hy": 2538, "افي": 2539, "ن ت": 2540, "ون ": 2541, "علاق": 2542, "تيار": 2543, " قاع": 2544, " تع": 2545, "خرين": 2546, "ريق": 2547, "سلب": 2548, " يت": 2549, " قري": 2550, "قريب": 2551, " out": 2552, "hy ": 2553, "يار": 2554, "لسل": 2555, "ولاي": 2556, "المهم": 2557, "طب": 2558, " دور": 2559, " العام": 2560, "من ال": 2561, " اله": 2562, "زوز": 2563, "نب ": 2564, " عندك ": 2565, "2i": 2566, "r بش ": 2567, "طول": 2568, " وهو": 2569, " answer ": 2570, "answer ": 2571, "يجابي": 2572, "خطو": 2573, " الخطو": 2574, "فرضي": 2575, " صحيح": 2576, " يمكن ": 2577, "معلومات ": 2578, " بشكل ": 2579, "نجليزي": 2580, " لازم ": 2581, "حدث": 2582, "بشكل ": 2583, "الخطو": 2584, " الفرضي": 2585, " المعطا": 2586, "مجموع": 2587, " الثاني": 2588, "روف ": 2589, " مختلف": 2590, "نسب": 2591, "سياق": 2592, "مختلف": 2593, "روف": 2594, "هاذي": 2595, " نجموا ن": 2596, " التالي": 2597, " الناس": 2598, " لذلك": 2599, "جاوب عل": 2600, "خيارات ": 2601, " خطو": 2602, " معلومات": 2603, " مجموع": 2604, "بحث": 2605, "نجمو": 2606, " ما نجمش": 2607, "wer بش ": 2608, "مريكي": 2609, "200": 2610, "وا عل": 2611, "وضوع": 2612, "صغير": 2613, "وجود": 2614, "كبير": 2615, "كتا": 2616, "عندهم": 2617, "في ال": 2618, "حال": 2619, " مش": 2620, "حرك": 2621, " بسبب ": 2622, "نوان": 2623, "كان": 2624, "والم": 2625, "مف": 2626, "دوا ": 2627, "201": 2628, "سرع": 2629, "فصل": 2630, "ظهر ": 2631, "ن يكون": 2632, "تاج ": 2633, " كنت": 2634, " ذلك": 2635, "نش ": 2636, "18": 2637, "تعطي": 2638, "وات ": 2639, "حيا": 2640, "حتمل": 2641, " خلي": 2642, " مباشر": 2643, " الفيلم ": 2644, "منطق": 2645, "هكا": 2646, " جديد": 2647, "موضوع": 2648, " بار": 2649, "فعا": 2650, "دات ": 2651, " اختار ": 2652, "تاري": 2653, "ريخ": 2654, " كلم": 2655, " بعض": 2656, "معن": 2657, " من خلال": 2658, "عرض": 2659, "تخدم": 2660, "راجع": 2661, " بعض ا": 2662, "حث": 2663, "عام ": 2664, " صار": 2665, "wer ال": 2666, "غرا": 2667, "مان ": 2668, " عندها ": 2669, "اجل ": 2670, "كلمات ": 2671, "تاب ": 2672, " عنده ": 2673, "عندها ": 2674, " شكون ": 2675, " معرو": 2676, "طاق": 2677, "سلسل": 2678, "حقيق": 2679, "تبط": 2680, "نش": 2681, " النص": 2682, "عنده ": 2683, "دعم": 2684, " 200": 2685, "جوا ": 2686, " سلبي": 2687, " خدم": 2688, "لاب": 2689, "لقاو": 2690, "هم ": 2691, "سباني": 2692, "كز": 2693, "شرك": 2694, " هاذي": 2695, " مص": 2696, "مهم": 2697, "وال": 2698, "خدام ": 2699, "فلام ": 2700, "اغ": 2701, "روا ": 2702, "حول ": 2703, "عات ": 2704, "وين ": 2705, "مز": 2706, "موا ": 2707, "رغم من": 2708, " ترج": 2709, "ثنا": 2710, "نشا": 2711, "ذكو": 2712, " نوع": 2713, "زوج": 2714, "سكر": 2715, "اوب عل": 2716, "ولوج": 2717, " عندهم": 2718, "مبي": 2719, "سلا": 2720, "صلي": 2721, "16": 2722, "مراجع": 2723, "سخ": 2724, " الكلم": 2725, " 10": 2726, "حق": 2727, "فماش ": 2728, " بخط": 2729, "يعمل": 2730, "لين ": 2731, "حداث": 2732, "وني": 2733, " بد": 2734, "ضغ": 2735, " رغم ": 2736, "قديم": 2737, "داخل": 2738, " سن": 2739, "كانوا ": 2740, "ز عل": 2741, " وهي": 2742, "ما نجم": 2743, " يوم": 2744, " تس": 2745, "هذه ال": 2746, "اول ": 2747, "ير ": 2748, " معين": 2749, "نظام": 2750, "وسيق": 2751, "مل ": 2752, " 18": 2753, "ضرو": 2754, " جاو": 2755, "كلم": 2756, " par": 2757, "يات الم": 2758, "في ذلك": 2759, "صد": 2760, "علق ": 2761, "اكتب": 2762, "فور": 2763, "تاب": 2764, "تخدام ": 2765, "موسي": 2766, "ولي": 2767, "جواب": 2768, "قق ": 2769, "الاس": 2770, "ين ": 2771, "دور ": 2772, " بما في ": 2773, "لعاب": 2774, "حساس": 2775, "نترن": 2776, "قات ": 2777, "فسي": 2778, "بس ": 2779, "ثر عل": 2780, "سبوع": 2781, "تيج": 2782, "50": 2783, "جنوب": 2784, " الجواب ": 2785, "الفرضي": 2786, "غط ": 2787, "باتا": 2788, "ضح ": 2789, "نطق": 2790, "رز": 2791, "درس": 2792, "د عل": 2793, "ختلف": 2794, "تجرب": 2795, "ندي": 2796, "wer الخط": 2797, "غار": 2798, " فيلم ": 2799, "شكل": 2800, "رجع ": 2801, " ومع": 2802, "نعم ": 2803, "بوا ": 2804, " اللي ت": 2805, " مع ال": 2806, "سلبي": 2807, "ii ": 2808, "وات ال": 2809, "ث عل": 2810, "جديد": 2811, "ات في ا": 2812, "tence ": 2813, "سير": 2814, "بك": 2815, "كامل": 2816, "سياس": 2817, " الما": 2818, "سما": 2819, "ناص": 2820, "لماني": 2821, " موجود": 2822, "هذي ": 2823, "صري": 2824, " تقييم": 2825, "ركز": 2826, "فوق": 2827, "فاصيل": 2828, " مكان ": 2829, " اكتب": 2830, "كبير ": 2831, "port": 2832, " متو": 2833, "وث": 2834, "سيق": 2835, "30": 2836, "واصل": 2837, "بيعي": 2838, "جمش ن": 2839, "ال هذا": 2840, "لام": 2841, " الولا": 2842, "ديم": 2843, " الموض": 2844, "شكون ": 2845, "معرو": 2846, "000": 2847, "فاعل": 2848, " بينما ا": 2849, " بالنس": 2850, "يني": 2851, "ينجم ي": 2852, " المعرو": 2853, "17": 2854, " زوز": 2855, "ادل": 2856, "ضا": 2857, " المتحد": 2858, "طني": 2859, " كر": 2860, "wer لا": 2861, "عدد ال": 2862, "يلاد": 2863, "امل ": 2864, "فاظ عل": 2865, " حيث": 2866, "استخ": 2867, "قسم": 2868, "تمام": 2869, "تعلي": 2870, " يبد": 2871, "جامع": 2872, "وان ": 2873, "حري": 2874, " راج": 2875, " الصحيح": 2876, "وظ": 2877, " كيفاش": 2878, "جميع": 2879, " opt": 2880, "ييم": 2881, "نوع ": 2882, " في هالم": 2883, "ن وا": 2884, "مين ": 2885, " ما ت": 2886, "شغ": 2887, "لا ": 2888, "طع": 2889, " تعطي": 2890, "رتب": 2891, "لاق": 2892, "تقي": 2893, " داخ": 2894, "فين ": 2895, "ها في ": 2896, "ياد": 2897, "بب ": 2898, "لاحظ": 2899, "مش ن": 2900, "مالي": 2901, "م من ": 2902, "thes": 2903, "الجواب ": 2904, "اجتماع": 2905, " دولار": 2906, "لايات ": 2907, "شتر": 2908, "تركي": 2909, "ستنتجو": 2910, " القص": 2911, "ماني": 2912, "فكا": 2913, "wer الم": 2914, "يعطي": 2915, "ion كيفا": 2916, "شخصي": 2917, "رياض": 2918, " تحديد ": 2919, " حوا": 2920, " جز": 2921, "مشكل": 2922, " عدد ال": 2923, " البح": 2924, " شنو هو ": 2925, "كيفاش ": 2926, "زياد": 2927, " بدا": 2928, " يحب": 2929, "لاعب": 2930, " للس": 2931, " هنا": 2932, "سترا": 2933, "دقا": 2934, "بيض": 2935, "استع": 2936, " لكن ما ": 2937, "جين ": 2938, "رقام": 2939, " خلال ": 2940, "نفس": 2941, "رجم": 2942, "ل لل": 2943, "ion هل ": 2944, "ومات الم": 2945, "قف": 2946, " يع": 2947, "المتحد": 2948, "هم ي": 2949, "دد": 2950, " في 20": 2951, "حسن ": 2952, " الموا": 2953, "sentence": 2954, "بس": 2955, " مس": 2956, " قبل ما ": 2957, "اسب ": 2958, "طلا": 2959, "حف": 2960, " يس": 2961, "ظيف": 2962, " المر": 2963, "ion اك": 2964, " ما فما": 2965, " كار": 2966, "قترح ": 2967, "موجود": 2968, "طبيعي": 2969, " ما عند": 2970, "فل ": 2971, "عتق": 2972, " لا": 2973, "تالي": 2974, "عالي": 2975, " تبد": 2976, "توي عل": 2977, "مرك": 2978, "رع": 2979, "هو ": 2980, " هذي": 2981, "اختيار": 2982, " المقدم": 2983, "هربا": 2984, " واض": 2985, "لينا ن": 2986, "عشر": 2987, "مرتب": 2988, " القدم": 2989, "حيات": 2990, "سابق": 2991, "تفاع": 2992, " حيا": 2993, "هم في ": 2994, "كور": 2995, " كام": 2996, "part": 2997, " بح": 2998, "والت": 2999, "طلو": 3000, " يمكن ت": 3001, "عضا": 3002, "عدد ": 3003, "رد": 3004, "علام": 3005, " منطق": 3006, "واض": 3007, " محت": 3008, " ممكن ": 3009, " نيو": 3010, "ب لل": 3011, "ل وا": 3012, " بش ن": 3013, "اسي": 3014, " بالرغ": 3015, "ن تكون ": 3016, "ما عند": 3017, "عندو ": 3018, " مد": 3019, "رحل": 3020, " عبر": 3021, "امل": 3022, " تف": 3023, "صر ال": 3024, " قدم": 3025, " الموس": 3026, " هال": 3027, "همي": 3028, " قوي": 3029, "بسبب ": 3030, " الذي": 3031, "عات ال": 3032, " مرتب": 3033, " ميل": 3034, "خصوص": 3035, "هدف ": 3036, " واس": 3037, " لعب": 3038, "سس": 3039, "عداد": 3040, " تحب ": 3041, "ber ": 3042, "نهاي": 3043, " كري": 3044, " مع بعض": 3045, " on ": 3046, "اسم ال": 3047, "ولاد": 3048, "ربي": 3049, "وغ": 3050, "راح": 3051, "مباشر": 3052, "تات ": 3053, "جسم": 3054, "تعمال ": 3055, "ونغ": 3056, "ive ": 3057, " هذا ي": 3058, " اليوم": 3059, "نسان": 3060, "لكن ": 3061, "جمهو": 3062, "روري": 3063, "قف ": 3064, "في الح": 3065, "رين ": 3066, " تشمل": 3067, " لكل": 3068, "ني ": 3069, "emphasi": 3070, "would be": 3071, "gges": 3072, "any ": 3073, "unders": 3074, "ffix": 3075, " vocabul": 3076, "abulary ": 3077, "speake": 3078, " under": 3079, " casual ": 3080, "ons and ": 3081, " assista": 3082, "unique ": 3083, " feel fr": 3084, "is more ": 3085, " someone": 3086, "peak": 3087, " need ": 3088, "way of": 3089, " equiv": 3090, "further ": 3091, "in msa": 3092, " loc": 3093, "pared ": 3094, "assi": 3095, "repeti": 3096, " incor": 3097, "sense of": 3098, "ense of ": 3099, "ared to ": 3100, " repetit": 3101, "sugg": 3102, " way of ": 3103, " saying ": 3104, "they": 3105, "specific": 3106, "cifi": 3107, " will ": 3108, " unique ": 3109, "come": 3110, "means i ": 3111, "tent": 3112, " maint": 3113, "stra": 3114, "d furt": 3115, "ffirm": 3116, " also ": 3117, "ood ": 3118, " way to ": 3119, "sistance": 3120, "er to ": 3121, " der": 3122, "how ": 3123, "n arabic": 3124, " compa": 3125, "fic ": 3126, " a more ": 3127, "her as": 3128, "e and ": 3129, "cultur": 3130, "in both ": 3131, "spee": 3132, "is commo": 3133, "oke": 3134, " any": 3135, "ry that ": 3136, " have an": 3137, "negation": 3138, "es of th": 3139, "ction ": 3140, " sugg": 3141, " about": 3142, " emphasi": 3143, "dress": 3144, " putting": 3145, " go ": 3146, "full t": 3147, "ural": 3148, " conveys": 3149, "it is ": 3150, " a sen": 3151, "ser": 3152, " refer t": 3153, "etition ": 3154, "inte": 3155, "ead ": 3156, "saying ": 3157, " perso": 3158, "tural ": 3159, "someone ": 3160, "from mod": 3161, "y more": 3162, "ght": 3163, "rstand": 3164, "s that": 3165, "aigh": 3166, "tforward": 3167, "equival": 3168, " has": 3169, "summary ": 3170, " direc": 3171, "compar": 3172, "fren": 3173, "or to ": 3174, "ns and": 3175, "asiz": 3176, "bj": 3177, "action": 3178, " simpl": 3179, "time": 3180, "and the ": 3181, "ely ": 3182, "stea": 3183, "simp": 3184, "raight": 3185, "he phras": 3186, "ps ": 3187, "con": 3188, "cally ": 3189, "ker ": 3190, "ell ": 3191, "yes": 3192, "tructure": 3193, "usag": 3194, " it is": 3195, "local ": 3196, "contex": 3197, " dis": 3198, "ench": 3199, " in msa ": 3200, " aim": 3201, " cultu": 3202, " see": 3203, "tion or ": 3204, "ests a": 3205, "express ": 3206, "or d": 3207, "pronou": 3208, "simila": 3209, "spo": 3210, "is often": 3211, "other ": 3212, "aintain ": 3213, " lit": 3214, "than": 3215, "of the t": 3216, "erstan": 3217, "ject ": 3218, "the spea": 3219, "ims to": 3220, " pos": 3221, "ain the ": 3222, "atical": 3223, " my ": 3224, "tes many": 3225, "turing": 3226, "mmat": 3227, "has ": 3228, "may not ": 3229, " captu": 3230, "ection": 3231, "rity": 3232, "inst": 3233, " a l": 3234, "nj": 3235, "of say": 3236, "ing it": 3237, "rve": 3238, " pronou": 3239, "say ": 3240, " speci": 3241, "ious": 3242, "erve": 3243, " often i": 3244, "pica": 3245, " words": 3246, " gra": 3247, " nature ": 3248, "eech": 3249, "refer to": 3250, "ignifica": 3251, " do ": 3252, "ught": 3253, "ion of": 3254, "typical ": 3255, " every": 3256, " yes": 3257, "of the": 3258, " no ": 3259, " compl": 3260, " may not": 3261, "suffi": 3262, "nature": 3263, " ten": 3264, " bei": 3265, "name": 3266, " making ": 3267, "ny more ": 3268, "hrase ": 3269, "to the": 3270, "ivalent ": 3271, "in spoke": 3272, "ectly ": 3273, " wel": 3274, "s common": 3275, "ame ": 3276, "a more": 3277, "it would": 3278, " rea": 3279, " actio": 3280, "s or nee": 3281, "onvers": 3282, " fri": 3283, "rmation ": 3284, "able": 3285, "ted to e": 3286, "ax": 3287, "ranslate": 3288, "atte": 3289, "old ": 3290, "wle": 3291, "stic": 3292, "led": 3293, "ing a ": 3294, " sig": 3295, "vary ": 3296, "ditional": 3297, " of sa": 3298, "hoices 1": 3299, "uses": 3300, "l way ": 3301, "ncer": 3302, "your": 3303, " man": 3304, "less": 3305, "cons": 3306, "bic it": 3307, "ular": 3308, "reflec": 3309, "akers ": 3310, "ding": 3311, "ted as": 3312, "know": 3313, "ntion ": 3314, "veryday ": 3315, " an ": 3316, " cla": 3317, "tual": 3318, "oh ": 3319, " fin": 3320, "s from": 3321, " goo": 3322, "s a sens": 3323, "as a": 3324, "s to m": 3325, " nam": 3326, " here ": 3327, "oun ": 3328, "y a ": 3329, " or i ": 3330, " now": 3331, "again ": 3332, "same": 3333, "a direct": 3334, "plet": 3335, "good": 3336, " frenc": 3337, " ac": 3338, "sage": 3339, "tement": 3340, "gre": 3341, "stat": 3342, "ling": 3343, "dari": 3344, "ssions a": 3345, " so ": 3346, "in ever": 3347, "tions ": 3348, "asizes t": 3349, "rija ": 3350, " parti": 3351, " like ": 3352, " inter": 3353, "s many": 3354, "es that ": 3355, "nch ": 3356, "mpli": 3357, " know ": 3358, "uation": 3359, "comple": 3360, " or to": 3361, "erja ": 3362, "lari": 3363, "ont ": 3364, " refer": 3365, " similar": 3366, "going ": 3367, "itua": 3368, "dont": 3369, "he spe": 3370, "jug": 3371, " commo": 3372, " and i": 3373, "lity": 3374, "situ": 3375, "atement ": 3376, "pret": 3377, "not be": 3378, "it s": 3379, "but the ": 3380, "making": 3381, "ned ": 3382, "e it": 3383, " have a ": 3384, "es or ": 3385, "i am": 3386, "differ s": 3387, "aker": 3388, "s if you": 3389, "kay": 3390, "ention": 3391, "ast ": 3392, "nclu": 3393, " hel": 3394, "mes ": 3395, "told": 3396, "ibl": 3397, "lete": 3398, "sizes t": 3399, " fou": 3400, "e this": 3401, "capture ": 3402, "poss": 3403, " imply": 3404, "d of": 3405, " phras": 3406, " fam": 3407, "has ma": 3408, "casual": 3409, " or a ": 3410, "well": 3411, "know ": 3412, " not be ": 3413, "ticl": 3414, "ative ": 3415, " me ": 3416, " but the": 3417, "ja inco": 3418, "clar": 3419, "rien": 3420, "ved ": 3421, "ed or ": 3422, "stoo": 3423, " res": 3424, "amil": 3425, "direct e": 3426, "son ": 3427, "imply ": 3428, " did": 3429, "language": 3430, "reement ": 3431, " by god ": 3432, " less ": 3433, "can also": 3434, "frie": 3435, " don": 3436, "monly u": 3437, "red to s": 3438, "esnt": 3439, "eing": 3440, "ner ": 3441, "side": 3442, " am ": 3443, "king it ": 3444, "ves ": 3445, "from the": 3446, " mean ": 3447, "ter": 3448, "age ": 3449, " they ": 3450, "tead": 3451, "ic it ": 3452, "xpress": 3453, "kers": 3454, "iation": 3455, " tone of": 3456, "ja ha": 3457, "e it i": 3458, " oh ": 3459, "ny uni": 3460, "ture of ": 3461, " your ": 3462, "person": 3463, "e of the": 3464, " inste": 3465, " it can ": 3466, "foun": 3467, "aria": 3468, "s it": 3469, " the spe": 3470, "d or": 3471, "the su": 3472, "tood": 3473, "iteral": 3474, "ffec": 3475, "for emph": 3476, "ones": 3477, "s often ": 3478, "cert": 3479, "lect it ": 3480, " hop": 3481, "hey ": 3482, "ertain": 3483, "hat the ": 3484, "tuation ": 3485, " to a ": 3486, "arity ": 3487, "ding t": 3488, "rsto": 3489, " rem": 3490, "indica": 3491, " is the ": 3492, " jus": 3493, " ser": 3494, "enti": 3495, "ing to": 3496, "ty or ": 3497, "referr": 3498, " goi": 3499, "quir": 3500, "or s": 3501, " in a ": 3502, "he verb ": 3503, "extu": 3504, "iend": 3505, " i w": 3506, "emot": 3507, "y or": 3508, "ear ": 3509, " pla": 3510, "ramm": 3511, "them": 3512, "ch and": 3513, " spoke": 3514, "peci": 3515, "gramm": 3516, "ents": 3517, " mad": 3518, " i a": 3519, " hea": 3520, "slight": 3521, "mphasi": 3522, "to expre": 3523, "ys a s": 3524, "oes": 3525, "yea": 3526, "list": 3527, "rela": 3528, " sho": 3529, "cess": 3530, "ally t": 3531, "on p": 3532, "yday sp": 3533, "a means ": 3534, " tim": 3535, "lural ": 3536, "ed from ": 3537, "fami": 3538, "the word": 3539, "ary that": 3540, " text or": 3541, "it can": 3542, "hap": 3543, " emo": 3544, "can v": 3545, " the l": 3546, " state": 3547, "hope": 3548, "l tone": 3549, "form of ": 3550, " can mea": 3551, "more cas": 3552, "lates to": 3553, " aga": 3554, "is is a ": 3555, "und in": 3556, "he text ": 3557, " usa": 3558, "h this i": 3559, "a common": 3560, "ally": 3561, "affi": 3562, "pect": 3563, "clu": 3564, "s can ": 3565, "past": 3566, "nne": 3567, "to say": 3568, "cating": 3569, "emphasiz": 3570, "straight": 3571, "bject ": 3572, "instead ": 3573, "pically ": 3574, "spoke": 3575, "tic ": 3576, " french ": 3577, "ance": 3578, "sugges": 3579, " complet": 3580, " expla": 3581, "knowled": 3582, " tone ": 3583, " frien": 3584, " being": 3585, " dont ": 3586, " instead": 3587, " famil": 3588, "ion and ": 3589, " particl": 3590, "made": 3591, " who": 3592, "sia ": 3593, "friend": 3594, "ant ": 3595, "eir ": 3596, "and th": 3597, "traigh": 3598, "complete": 3599, "ituation": 3600, "be more ": 3601, "eople ": 3602, "s like": 3603, "in the c": 3604, "take": 3605, " all": 3606, "ead of": 3607, "isti": 3608, "nformal ": 3609, "orro": 3610, " al": 3611, "tell": 3612, "hel": 3613, "found in": 3614, " sugges": 3615, "emotiona": 3616, " in spo": 3617, "hu": 3618, "ok ": 3619, "arac": 3620, "genc": 3621, "cept": 3622, "dnt": 3623, "d means ": 3624, "ional ": 3625, "literal ": 3626, "flue": 3627, " up ": 3628, "ed in ": 3629, "she ": 3630, "cultural": 3631, " peo": 3632, " usage": 3633, "can mean": 3634, "remain": 3635, "simpli": 3636, "who ": 3637, "suffix": 3638, "ion i ": 3639, " day": 3640, "t often ": 3641, "esting": 3642, "s are ": 3643, "pression": 3644, " grammat": 3645, "mmatical": 3646, " ret": 3647, " straigh": 3648, "ifie": 3649, "pro": 3650, "import": 3651, "ndicates": 3652, " well ": 3653, "conjug": 3654, "portan": 3655, "rrow": 3656, "ople": 3657, " roo": 3658, "peop": 3659, " bec": 3660, " tak": 3661, " des": 3662, "thei": 3663, "acter": 3664, " found i": 3665, "ything ": 3666, "make": 3667, "present ": 3668, "address": 3669, "ook ": 3670, "infl": 3671, "ently ": 3672, " hou": 3673, "by god": 3674, "in the t": 3675, "ing that": 3676, "cri": 3677, "ests t": 3678, "ong ": 3679, "adds": 3680, " impor": 3681, "llow": 3682, " likely ": 3683, "sibl": 3684, "e which ": 3685, "fter": 3686, " car": 3687, "in the": 3688, "tens": 3689, "sing": 3690, "maintain": 3691, "roup ": 3692, "when": 3693, "ather ": 3694, " fir": 3695, "uch ": 3696, "famili": 3697, "said": 3698, "cuss": 3699, "speakers": 3700, "speech": 3701, "prep": 3702, "teris": 3703, "ffection": 3704, "ion that": 3705, "es to i ": 3706, "is not": 3707, "pecific ": 3708, "plac": 3709, " uses ": 3710, "tant": 3711, " between": 3712, "consid": 3713, "ughter": 3714, "might be": 3715, " the p": 3716, "dis": 3717, "o a ": 3718, "res that": 3719, "sincer": 3720, " get": 3721, "appe": 3722, "ider": 3723, " adds": 3724, "rally ": 3725, "usage ": 3726, "aining": 3727, "kha": 3728, "l expres": 3729, "nced": 3730, "ations": 3731, "irst": 3732, " typica": 3733, "ound": 3734, "relax": 3735, "ncerity ": 3736, "orta": 3737, "went": 3738, "struct": 3739, "nificant": 3740, "ah": 3741, "is word ": 3742, "tep and ": 3743, "prev": 3744, "posi": 3745, " sa": 3746, " does": 3747, " fea": 3748, " when ": 3749, "firs": 3750, "ng to ": 3751, "nding ": 3752, "ast te": 3753, "deri": 3754, "someones": 3755, " remai": 3756, "lear": 3757, "bet": 3758, "e that": 3759, "feature ": 3760, "tween": 3761, " for ins": 3762, " a b": 3763, "inter": 3764, " or in": 3765, " sing": 3766, " i am ": 3767, "ingular": 3768, " told ": 3769, " clarity": 3770, "rived ": 3771, " follo": 3772, "sel": 3773, "then i": 3774, " situa": 3775, "implie": 3776, "likely": 3777, " posse": 3778, " helps ": 3779, "ah ": 3780, " repea": 3781, "repeat": 3782, " action ": 3783, "um ": 3784, " relax": 3785, "duc": 3786, "ly to ": 3787, " or the ": 3788, " deriv": 3789, "is used ": 3790, " phrases": 3791, "partic": 3792, "tion 1": 3793, "ze ": 3794, "gment": 3795, "h and ": 3796, "tion and": 3797, "omething": 3798, " simplif": 3799, "egi": 3800, "nk ": 3801, "root": 3802, "serves ": 3803, "lps ": 3804, "ts to ": 3805, "curate": 3806, " them ": 3807, "french": 3808, "e explan": 3809, "scu": 3810, "inclu": 3811, "typica": 3812, "t to": 3813, "talk": 3814, "expresse": 3815, "n that": 3816, "bic you ": 3817, " tho": 3818, "even": 3819, " good ": 3820, "sentim": 3821, "aq": 3822, "ways": 3823, " be more": 3824, "want": 3825, " certain": 3826, "ary and ": 3827, "te it ": 3828, " hap": 3829, " conside": 3830, " the f": 3831, "iment ": 3832, "lain t": 3833, " vary ": 3834, "chang": 3835, "tali": 3836, "into e": 3837, "is means": 3838, "clusion": 3839, "mbi": 3840, "did": 3841, "preserve": 3842, " form of": 3843, " ber": 3844, "certain ": 3845, " swe": 3846, "beca": 3847, "work ": 3848, "the stru": 3849, " work ": 3850, "y and ": 3851, "clarity ": 3852, " i s": 3853, " maintai": 3854, "nto engl": 3855, " tense": 3856, "erber ": 3857, " present": 3858, "instan": 3859, "lifi": 3860, " other": 3861, "ed and": 3862, "there is": 3863, " bor": 3864, "alla": 3865, " person ": 3866, "prop": 3867, " at ": 3868, "person s": 3869, "nning": 3870, "ummary ": 3871, " or re": 3872, "niz": 3873, "coun": 3874, " ap": 3875, "aker is ": 3876, "ies ": 3877, " suffix": 3878, "rical ": 3879, "alk ": 3880, "s more": 3881, "aft": 3882, "similar": 3883, "clude": 3884, "dist": 3885, " ala": 3886, "possessi": 3887, "zes the": 3888, "um": 3889, " the r": 3890, "ough": 3891, " tal": 3892, "e it int": 3893, " is not ": 3894, "speaking": 3895, "pend": 3896, " feeling": 3897, "hone": 3898, "rge": 3899, " the su": 3900, "nly": 3901, " for the": 3902, " on the ": 3903, " lea": 3904, "unction ": 3905, "ach ": 3906, "tion i": 3907, " fut": 3908, " ita": 3909, "end": 3910, " plural ": 3911, "for inst": 3912, "s simila": 3913, "clear ": 3914, "viou": 3915, "imilar": 3916, "did ": 3917, " be": 3918, "future": 3919, "ledg": 3920, "past ten": 3921, "with the": 3922, " going t": 3923, "foll": 3924, "b to": 3925, "words ": 3926, "wear": 3927, "ilia": 3928, " is used": 3929, "ack ": 3930, "mphasiz": 3931, "ring the": 3932, "lian": 3933, "swear": 3934, "ce of ": 3935, " choic": 3936, "my s": 3937, "poin": 3938, " tell ": 3939, " fem": 3940, " it in": 3941, " at the ": 3942, "d and ": 3943, "ine ": 3944, "aj": 3945, "depe": 3946, "show": 3947, "stood ": 3948, "char": 3949, "ch and i": 3950, "he f": 3951, "uture ": 3952, " att": 3953, " bro": 3954, "stor": 3955, "ial and ": 3956, "wed ": 3957, "ad of ": 3958, "ber fren": 3959, "sist": 3960, "on or ": 3961, "stin": 3962, "listen": 3963, "and i ": 3964, " possi": 3965, " combi": 3966, "dea ": 3967, " bit": 3968, " wan": 3969, " wal": 3970, "are you ": 3971, "slightly": 3972, "n msa ": 3973, "lf ": 3974, "lness": 3975, "te the": 3976, "plural": 3977, "in summ": 3978, "lightly ": 3979, "that is ": 3980, "tinc": 3981, "i told": 3982, "nter": 3983, " sha": 3984, "i will": 3985, " speec": 3986, "seem": 3987, "resent": 3988, "ntax": 3989, " cou": 3990, " could": 3991, "ep and": 3992, "ende": 3993, "loo": 3994, "just ": 3995, " na": 3996, " choices": 3997, "ount": 3998, "yeah ": 3999, "per ": 4000, " qui": 4001, " ma": 4002, "aught": 4003, "uences": 4004, " disti": 4005, "ct text ": 4006, "a lo": 4007, "for the ": 4008, "together": 4009, "phrases ": 4010, " mar": 4011, "ttle": 4012, "ribe": 4013, "ing or": 4014, "en ill": 4015, " address": 4016, "ous ": 4017, "ll exp": 4018, "ending": 4019, "i hope": 4020, "ted to": 4021, " literal": 4022, "timent": 4023, "borr": 4024, " i t": 4025, "rber ": 4026, "eature": 4027, "ctures": 4028, "ic you": 4029, " rec": 4030, "aw": 4031, " alo": 4032, " loo": 4033, "gni": 4034, "al nuanc": 4035, "could ": 4036, "is str": 4037, "gin": 4038, " to be": 4039, "of spoke": 4040, "rpret": 4041, "com": 4042, "oesnt": 4043, "ber": 4044, " mon": 4045, "sessio": 4046, " cle": 4047, " influ": 4048, "affec": 4049, "s 2 ": 4050, "ha this ": 4051, "used for": 4052, "end ": 4053, "then": 4054, "ssion ": 4055, "ts it ": 4056, "evious": 4057, "oduc": 4058, "dicating": 4059, " nega": 4060, "ken ": 4061, " a str": 4062, "it indic": 4063, "means we": 4064, " ens": 4065, "tabl": 4066, "rong": 4067, " forms": 4068, "he same ": 4069, "people": 4070, "ill expl": 4071, "n ill ": 4072, " people ": 4073, "their ": 4074, " made st": 4075, "tion و": 4076, " met": 4077, " i mad": 4078, "hoices i": 4079, " made ": 4080, "aut": 4081, "h means ": 4082, "و means ": 4083, "soci": 4084, "he way": 4085, "tion ": 4086, "cial": 4087, "ng the w": 4088, "meta": 4089, " discuss": 4090, "etap": 4091, "apho": 4092, "ks ": 4093, "this par": 4094, "in my ": 4095, "taph": 4096, "ful ": 4097, "ong the ": 4098, "man ": 4099, " along t": 4100, "i means ": 4101, "the way ": 4102, "cribe": 4103, "and expl": 4104, "star": 4105, "turn": 4106, "along ": 4107, "long": 4108, "phor": 4109, "made alo": 4110, "over": 4111, "discuss": 4112, "ts that ": 4113, "shi": 4114, "i made": 4115, " part ": 4116, " soc": 4117, "possibl": 4118, "cern": 4119, "tory": 4120, "dre": 4121, "ion this": 4122, "e al": 4123, "dicates ": 4124, "house ": 4125, "ause ": 4126, " possibl": 4127, " means s": 4128, " contr": 4129, "referenc": 4130, "elf ": 4131, "tter": 4132, "because ": 4133, "diom": 4134, " clo": 4135, " preser": 4136, "ing and ": 4137, " lif": 4138, "explain ": 4139, "e phrase": 4140, "our ": 4141, "blem": 4142, "tical ": 4143, "vide": 4144, " lov": 4145, " min": 4146, "liti": 4147, "olit": 4148, "self ": 4149, "means in": 4150, " were ": 4151, "orical": 4152, "didnt": 4153, " mention": 4154, "idio": 4155, "art ": 4156, "give": 4157, "ا means ": 4158, " house": 4159, " beca": 4160, " name ": 4161, "atic": 4162, "bility": 4163, "there ": 4164, "ving": 4165, "ain my": 4166, "per": 4167, "es and": 4168, "mus": 4169, " their": 4170, "between": 4171, " wom": 4172, "pport": 4173, "des": 4174, "conne": 4175, "without ": 4176, "he is ": 4177, "ي means ": 4178, "ild": 4179, "they are": 4180, "proach ": 4181, "read": 4182, "ip ": 4183, "play": 4184, "cre": 4185, "respec": 4186, "hout": 4187, "omat": 4188, "ked ": 4189, "hers": 4190, " the m": 4191, "on the": 4192, "es the": 4193, " a m": 4194, " respect": 4195, " sto": 4196, "cene": 4197, " impli": 4198, " pol": 4199, "scri": 4200, " kno": 4201, "troduc": 4202, "two": 4203, "ocial ": 4204, "tion he ": 4205, "life": 4206, "matic ": 4207, "ه means ": 4208, "en incor": 4209, "wa means": 4210, "reat": 4211, "flow": 4212, "ings ": 4213, "c dari": 4214, " borro": 4215, "az": 4216, "othe": 4217, "ws ": 4218, "horical ": 4219, "r and ": 4220, " only": 4221, "ion و ": 4222, " descri": 4223, "roduc": 4224, "previous": 4225, "nother": 4226, "idea": 4227, " witho": 4228, "unity": 4229, "poli": 4230, "hip ": 4231, "val": 4232, "borrow": 4233, " start": 4234, "head": 4235, "eep ": 4236, "ighbo": 4237, "der ": 4238, "expe": 4239, "each": 4240, "ed with ": 4241, " even ": 4242, " our": 4243, "intr": 4244, "ubl": 4245, "hear": 4246, "tion و ": 4247, "get ": 4248, " said": 4249, " she": 4250, " after": 4251, "n means ": 4252, "only": 4253, " group ": 4254, "mall": 4255, " mus": 4256, "chil": 4257, "pris": 4258, "ch as ": 4259, "countr": 4260, " a perso": 4261, "hand": 4262, "gest": 4263, " is an": 4264, "gard": 4265, "ioma": 4266, " inv": 4267, " and s": 4268, "tal ": 4269, "nection ": 4270, "love": 4271, "in a": 4272, "term for": 4273, "n a ": 4274, "proper": 4275, "r explan": 4276, " pri": 4277, "cy ": 4278, "low ": 4279, " gre": 4280, "personal": 4281, " place": 4282, "came": 4283, "ugge": 4284, " count": 4285, "though": 4286, "yone": 4287, "ck": 4288, "group ": 4289, " intro": 4290, "hood": 4291, "e for ": 4292, "4 و ": 4293, " langua": 4294, "guage": 4295, "ssions": 4296, "till": 4297, "little": 4298, "doesnt": 4299, "nclude": 4300, "s 3 ": 4301, " and ": 4302, " than ": 4303, " happe": 4304, " many ": 4305, " idi": 4306, "beli": 4307, "alle": 4308, "follow": 4309, " dar": 4310, "clos": 4311, "ly the s": 4312, "adap": 4313, "were": 4314, " becom": 4315, "itical": 4316, "t means ": 4317, " rega": 4318, "pened ": 4319, "r means ": 4320, " fac": 4321, "after": 4322, "tle ": 4323, "m means ": 4324, "rowed ": 4325, "alue": 4326, "mess": 4327, "3 و ": 4328, " the i": 4329, "muni": 4330, "tin": 4331, " there i": 4332, "egard": 4333, "des ": 4334, "gue": 4335, " relat": 4336, "is par": 4337, " chang": 4338, "wri": 4339, "ially ": 4340, " enter": 4341, " هاذا ": 4342, " chil": 4343, "strong": 4344, "reas": 4345, "stay": 4346, "udi": 4347, "s 4 ": 4348, " sti": 4349, "erie": 4350, "b means ": 4351, "tion ي": 4352, "e are ": 4353, "consider": 4354, " sy": 4355, "happe": 4356, "cour": 4357, "ger ": 4358, "another ": 4359, " aims to": 4360, " terms": 4361, "served ": 4362, "u means ": 4363, " had": 4364, " there": 4365, "back ": 4366, "contra": 4367, "appro": 4368, "es of ": 4369, "world": 4370, "y the ": 4371, "pass": 4372, "ationshi": 4373, " lon": 4374, "look ": 4375, "reflect ": 4376, "lief": 4377, " didnt": 4378, "sce": 4379, " of a ": 4380, "gui": 4381, " flo": 4382, "dge": 4383, "rding ": 4384, "ha means": 4385, "still ": 4386, " thr": 4387, " ima": 4388, " conne": 4389, "rega": 4390, " the b": 4391, "imply a ": 4392, "to be ": 4393, "does": 4394, " retur": 4395, "ka ": 4396, "jo": 4397, "ensu": 4398, "acti": 4399, "urpo": 4400, " a g": 4401, "pose": 4402, "ion they": 4403, "you are ": 4404, "ince": 4405, "xplanati": 4406, "ed by ": 4407, "curr": 4408, "t a ": 4409, "ties": 4410, " front": 4411, " and ي": 4412, " mov": 4413, " time ": 4414, "he g": 4415, "ble ": 4416, " the c": 4417, "l means ": 4418, "rning ": 4419, " why ": 4420, "2 و ": 4421, "carr": 4422, "ality ": 4423, "imag": 4424, " comm": 4425, " conce": 4426, "standing": 4427, " the g": 4428, "ster": 4429, " gir": 4430, "ت means ": 4431, "focu": 4432, "mother": 4433, "ear": 4434, " tea": 4435, "retu": 4436, "front ": 4437, "nt of ": 4438, "cussions": 4439, "call": 4440, " bas": 4441, "thos": 4442, " wei": 4443, "aid ": 4444, " z": 4445, "er and": 4446, " night": 4447, "ract": 4448, "suring": 4449, " some ": 4450, "noun": 4451, " a con": 4452, "eight ": 4453, "fore ": 4454, " desir": 4455, "tunisia ": 4456, " thing": 4457, "nger": 4458, "perien": 4459, "sma": 4460, " a lot": 4461, " explain": 4462, " wat": 4463, "ions and": 4464, "sty": 4465, " come ": 4466, "on that ": 4467, "nation": 4468, "rho": 4469, "ل means ": 4470, " ope": 4471, " clear": 4472, "specia": 4473, " look ": 4474, "riti": 4475, " just ": 4476, "night ": 4477, "utho": 4478, " fi ": 4479, " and ن": 4480, "befor": 4481, "relation": 4482, "he m": 4483, " local": 4484, "new ": 4485, " two": 4486, " 4 و": 4487, " bring": 4488, " brother": 4489, "seems to": 4490, "include": 4491, "o the ": 4492, "hold": 4493, " los": 4494, "tting ": 4495, "tion ت": 4496, " pas": 4497, "in means": 4498, "plea": 4499, " wri": 4500, "havi": 4501, "nota": 4502, "ash ": 4503, "mini": 4504, "ssue": 4505, " end": 4506, "serve": 4507, " back ": 4508, " الكل ": 4509, " us ": 4510, "woma": 4511, "medi": 4512, "gir": 4513, "hem ": 4514, "ari": 4515, "ud": 4516, "tion ن": 4517, " gen": 4518, " the t": 4519, " matt": 4520, "ر means ": 4521, "oman": 4522, "es not": 4523, " diffe": 4524, "yle": 4525, " unc": 4526, "kan": 4527, "pe of ": 4528, "contin": 4529, "that the": 4530, "round": 4531, " mother ": 4532, "enta": 4533, " conti": 4534, "he sai": 4535, "leng": 4536, " dep": 4537, "liz": 4538, "illi": 4539, "these ": 4540, " a d": 4541, "enter": 4542, "me and": 4543, "ustr": 4544, "helps ": 4545, "ible in": 4546, "communi": 4547, "open": 4548, "provi": 4549, " means a": 4550, "onge": 4551, "way to": 4552, "vol": 4553, " befor": 4554, "utif": 4555, "matt": 4556, "l explan": 4557, " respo": 4558, "bor": 4559, "ded ": 4560, "ion but ": 4561, "lack ": 4562, " came ": 4563, "torical ": 4564, "very ": 4565, "why ": 4566, " requ": 4567, " foc": 4568, "ly from ": 4569, "ونسي": 4570, "انو ": 4571, "خمس": 4572, " معناها ": 4573, " وعشر": 4574, " لي ": 4575, " التون": 4576, "و عل": 4577, " انو ": 4578, "مهوري": 4579, "قانو": 4580, " الجمه": 4581, "عشرين ": 4582, "دول": 4583, "بلاد": 4584, "قتصا": 4585, " تونس ": 4586, "جلس": 4587, "راهو ": 4588, " امم": 4589, "metaphor": 4590, "ايا ": 4591, "يس الج": 4592, " اه ": 4593, "نتخا": 4594, " الدول": 4595, " او ": 4596, "عو ": 4597, "هذاي": 4598, "كوم": 4599, "ثما": 4600, "عين ": 4601, " راهو ": 4602, " مم ": 4603, "ربع": 4604, "انتخ": 4605, "علاش": 4606, "قولو": 4607, " شي": 4608, "تخاب": 4609, "كلام": 4610, " اخر": 4611, " هذايا": 4612, "خارج": 4613, "phorical": 4614, "كيما ": 4615, " في تونس": 4616, "لهم ": 4617, " يقول ": 4618, " metapho": 4619, "جتماع": 4620, " خمس": 4621, "خابات ": 4622, "تقري": 4623, " الوطني": 4624, " نحكي": 4625, "وها ": 4626, "صادي": 4627, "هز": 4628, "رجع": 4629, "امم ": 4630, "ولو ": 4631, " ثلاث": 4632, "كاي": 4633, " بالنسب": 4634, "اقتص": 4635, "ship ": 4636, "نون ": 4637, " الفين و": 4638, "طبيع": 4639, "حو ": 4640, " لو ": 4641, "لاد ": 4642, "انون ": 4643, " السياسي": 4644, " برشا ": 4645, "ناش ": 4646, "شعب": 4647, "اكثر ": 4648, "زال ": 4649, "ثم ": 4650, "انو ال": 4651, "قضا": 4652, "نقول": 4653, " الانت": 4654, " معنات": 4655, " اي ": 4656, "جرا": 4657, " معناه": 4658, " جدا": 4659, "فلوس ": 4660, " لك ": 4661, "سلط": 4662, "انس": 4663, " وخ": 4664, "حكوم": 4665, "introduc": 4666, "مها ": 4667, " علاش ": 4668, " without": 4669, "اربع": 4670, "اليوم ": 4671, "ينار": 4672, " القان": 4673, "لسطي": 4674, " الحال": 4675, "يلز": 4676, "قدام": 4677, "احنا ": 4678, "باب ": 4679, "تصاد": 4680, " نتاع ": 4681, "نتاع": 4682, "هادي": 4683, " مستو": 4684, " الحكو": 4685, " نتاع": 4686, " ولكن ": 4687, "ساع": 4688, "قلت ": 4689, "لمان": 4690, "معناها ": 4691, "ثما ": 4692, "هوش ": 4693, "بالنسب": 4694, "عندك ": 4695, "حكيو": 4696, "اهم ": 4697, "ستور": 4698, "حكاي": 4699, "ultural ": 4700, " هاك": 4701, "ضل ": 4702, "صلاح": 4703, "نشوف": 4704, "كيو ": 4705, "زادا ": 4706, "مومي": 4707, " تقريب": 4708, "يمشي": 4709, " دين": 4710, "و ان": 4711, "اما ": 4712, "اصل ": 4713, "كنت ": 4714, "تقول ": 4715, " قان": 4716, "تدا": 4717, "هيش ": 4718, "خلص": 4719, "تنا ": 4720, "نحكيو ": 4721, "معناتها ": 4722, "شهر ": 4723, "sm ": 4724, "عيد ": 4725, "عملو": 4726, " عليه ": 4727, "ويا ": 4728, "اا": 4729, "قراط": 4730, "حات ": 4731, " ارب": 4732, " ساع": 4733, "هاذ": 4734, "عموم": 4735, "describe": 4736, " هم ": 4737, "يعرف": 4738, "ندوق": 4739, "انتي": 4740, "منظ": 4741, " عندو ": 4742, "تحاد": 4743, "مجلس": 4744, "هاش ": 4745, "become": 4746, "omatic": 4747, " ناس": 4748, " فقط": 4749, " الشعب": 4750, " الحقيق": 4751, "تث": 4752, " متع": 4753, " idiomat": 4754, " باهي ": 4755, "est ": 4756, "ublic": 4757, "دينار": 4758, " الاقت": 4759, " البلا": 4760, " نقول ": 4761, " هذه ال": 4762, "ريبا": 4763, "experien": 4764, "right ": 4765, "فقط": 4766, " انو ال": 4767, " انه ": 4768, " يجي": 4769, "قضي": 4770, "طالب": 4771, " قدا": 4772, " عشر": 4773, "تاريخ": 4774, "نحب ": 4775, "طار ": 4776, "فلا": 4777, "rent": 4778, " مليون ": 4779, "نون ال": 4780, "نقول ": 4781, "histor": 4782, "others": 4783, "وزار": 4784, " هاد": 4785, "weight": 4786, "social": 4787, "ضبط ": 4788, " ثم ": 4789, " ايه": 4790, "غرب": 4791, "ضعي": 4792, "aime": 4793, "في تونس": 4794, "uggest": 4795, " ليس": 4796, " فكر": 4797, "حكم": 4798, "زار": 4799, "مسين ": 4800, "صرف": 4801, " اذا كان": 4802, " مازا": 4803, "so that ": 4804, "وطني": 4805, " هادي ": 4806, "dri": 4807, "do not": 4808, "nment": 4809, " نقو": 4810, "الناس ": 4811, "خابي": 4812, " contin": 4813, "titu": 4814, "e who ": 4815, "ensuring": 4816, "سعي": 4817, "everyone": 4818, "ons that": 4819, "معاه": 4820, "اعي": 4821, "يزاني": 4822, "does not": 4823, "بيع": 4824, "يدي ": 4825, "و بال": 4826, "مازا": 4827, "ميزا": 4828, "first ": 4829, "ظاه": 4830, "father": 4831, " the d": 4832, " حد ": 4833, "سمع": 4834, "و مع": 4835, "صبح": 4836, "يخدم": 4837, "شكرا": 4838, "ثماني": 4839, " ord": 4840, "توان": 4841, "عوب": 4842, "reli": 4843, " خير ": 4844, "tandable": 4845, "حاف": 4846, "wing": 4847, " the emo": 4848, " hom": 4849, " find ": 4850, "t while ": 4851, "rhood": 4852, " في علاق": 4853, "med to": 4854, " مج": 4855, "ation or": 4856, "return": 4857, "ومي": 4858, " سياسي": 4859, "كذلك": 4860, "اذا كان ": 4861, "gene": 4862, " ياس": 4863, "mar": 4864, "bash": 4865, "ها الم": 4866, "داش ": 4867, "صوت": 4868, "غز": 4869, "مواط": 4870, "صالح": 4871, " احنا ": 4872, "غدو": 4873, "ands": 4874, "ivid": 4875, " ومن ": 4876, " ill": 4877, " world": 4878, "حز": 4879, "م عل": 4880, "من بعد ": 4881, " 3 و": 4882, "econ": 4883, "ايه ": 4884, "سوا": 4885, "عملت": 4886, "زالت": 4887, "يط ": 4888, "فو ": 4889, "alleng": 4890, "mone": 4891, "tyle": 4892, "ظر ": 4893, "ولكن": 4894, "عود": 4895, " clari": 4896, " talk ": 4897, "5 و ": 4898, "l we": 4899, "what is ": 4900, " سيد": 4901, "unti": 4902, "ment or ": 4903, "روع ": 4904, "تبر ": 4905, "وكي": 4906, "قداش": 4907, "نان ": 4908, "ثنين ": 4909, "for a ": 4910, "ighborho": 4911, "berber ": 4912, "عادش ": 4913, "تد": 4914, " في كل": 4915, "choo": 4916, "بها ": 4917, " rather ": 4918, "انون ا": 4919, "much ": 4920, "ليس ": 4921, "edia": 4922, " شكر": 4923, "كش ": 4924, "ler ": 4925, " زادا ": 4926, "simple": 4927, "اتها ": 4928, "يلزم ": 4929, "respo": 4930, "vity": 4931, " وض": 4932, "اكا ": 4933, "gs ": 4934, "فع ": 4935, "ضر ": 4936, "ب means ": 4937, "ترش": 4938, "desir": 4939, "especi": 4940, "ش ma": 4941, " مشكل": 4942, "les ": 4943, "ligi": 4944, "عت ": 4945, " doesnt": 4946, "ن عل": 4947, "م means ": 4948, " مثلا ": 4949, "cula": 4950, " و الم": 4951, "ards": 4952, "uous ": 4953, "tten": 4954, "on of ": 4955, "live": 4956, "و لل": 4957, " bar": 4958, "و كان ": 4959, "issu": 4960, "طف": 4961, "يحكي": 4962, " charac": 4963, "left": 4964, "ts a sen": 4965, " البار": 4966, " previou": 4967, "زم": 4968, "ارجي": 4969, "beaut": 4970, " derja ": 4971, "cent": 4972, "هاكا": 4973, " 3 و ": 4974, " ثما ": 4975, "red to m": 4976, "نا في ": 4977, "مثلا ": 4978, "هات ": 4979, "اثنين ": 4980, " to me": 4981, " 2 و": 4982, "find": 4983, " experie": 4984, " شوف": 4985, "طلق": 4986, " dec": 4987, "اخر": 4988, "mbo": 4989, "مام ": 4990, "m and ": 4991, "معناه ": 4992, "قريبا ": 4993, " social ": 4994, "مليون ": 4995, "وك": 4996, "always": 4997, " in many": 4998, " الوقت": 4999, "به": 5000, "ياسر ": 5001, " with a ": 5002, " المس": 5003, "rough": 5004, "نفي": 5005, "d the ": 5006, " مليار": 5007, "عليها ": 5008, "بلغ": 5009, "uth ": 5010, " السلط": 5011, "تحب ": 5012, "جب ": 5013, "ball": 5014, " these": 5015, "k means ": 5016, "ugh ": 5017, "مغ": 5018, "is the p": 5019, " right": 5020, "care": 5021, "ش means ": 5022, "ross": 5023, "those wh": 5024, "حين ": 5025, "وانس": 5026, "اخذ": 5027, " future ": 5028, "appear": 5029, " 2 ": 5030, "جات ": 5031, "مستو": 5032, "وهم ": 5033, "سيدي": 5034, "t which ": 5035, "يحب ": 5036, "style": 5037, "بز": 5038, " الموضوع": 5039, "قيم": 5040, " هاو": 5041, " hat": 5042, "مشيو": 5043, "med ": 5044, "we are": 5045, "صار ": 5046, "دست": 5047, "etic": 5048, "دع": 5049, " liv": 5050, "سعا": 5051, " highli": 5052, "فات ": 5053, "let ": 5054, " stu": 5055, "يا و": 5056, " went ": 5057, "vement": 5058, " المنا": 5059, " ple": 5060, "ك means ": 5061, " very ": 5062, "عب الت": 5063, "وضعي": 5064, "هاو ": 5065, "serv": 5066, "ed this ": 5067, "ك عل": 5068, "home": 5069, " num": 5070, "num": 5071, "umber": 5072, "eting ": 5073, "the text": 5074, "howe": 5075, "wever": 5076, "arious ": 5077, " hun": 5078, "case": 5079, " however": 5080, "contexts": 5081, "ue to ": 5082, "greet": 5083, " the pro": 5084, "retain": 5085, "gniz": 5086, " greet": 5087, "n englis": 5088, "derived ": 5089, "talian": 5090, " quite": 5091, "umber ": 5092, " varia": 5093, "four": 5094, "undre": 5095, " much ": 5096, "is also ": 5097, " give ": 5098, "repres": 5099, "highligh": 5100, "nce of": 5101, "ronunci": 5102, "simplifi": 5103, " remains": 5104, "es direc": 5105, "quit": 5106, " qua": 5107, "soun": 5108, "particle": 5109, "influe": 5110, "proper n": 5111, "راس ": 5112, "train ": 5113, "distin": 5114, " distinc": 5115, "half ": 5116, " provide": 5117, " the rep": 5118, " in": 5119, "loca": 5120, " مي": 5121, "titude": 5122, "curately": 5123, "city": 5124, "varia": 5125, " in ever": 5126, "the same": 5127, "friendly": 5128, "sometime": 5129, "es 1": 5130, "urgenc": 5131, " dari": 5132, " first": 5133, " speech ": 5134, "overall ": 5135, "ic the": 5136, "cation ": 5137, " kha": 5138, "istic ": 5139, "of ": 5140, "s but ": 5141, "remains ": 5142, " urge": 5143, "to conve": 5144, "reques": 5145, " thous": 5146, "dly": 5147, "inct": 5148, "okay": 5149, "tences": 5150, " i hop": 5151, " sente": 5152, " and a ": 5153, "dialec": 5154, "rgenc": 5155, "and it": 5156, "prec": 5157, " culture": 5158, " trans": 5159, "ces 1 ": 5160, "aspect": 5161, "tend": 5162, " differs": 5163, " is also": 5164, " noun ": 5165, " feature": 5166, "could be": 5167, "asking": 5168, "times ": 5169, "rs from ": 5170, "mmedia": 5171, "using ": 5172, " as a ": 5173, "erms": 5174, " amo": 5175, "a ha": 5176, "aimed to": 5177, " i will ": 5178, "share ": 5179, " proper ": 5180, "urpose": 5181, "peac": 5182, "pon ": 5183, "osition ": 5184, " a pro": 5185, "quiry ": 5186, " familia": 5187, "uence ": 5188, "ite ": 5189, "wed from": 5190, "usand ": 5191, "alter": 5192, "bit ": 5193, " since": 5194, "due": 5195, "aims to ": 5196, "ogni": 5197, "the more": 5198, " lis": 5199, "hour": 5200, "the term": 5201, " manner ": 5202, "in many ": 5203, "prepos": 5204, "nquir": 5205, " reco": 5206, "the pron": 5207, "such as ": 5208, "ginning": 5209, "per noun": 5210, "entence ": 5211, "g that": 5212, "across": 5213, "s which ": 5214, "essage": 5215, " cur": 5216, " to you ": 5217, "vari": 5218, "ements": 5219, "y about ": 5220, "rather": 5221, "ring to ": 5222, "n you ": 5223, "s a more": 5224, "secon": 5225, "n way to": 5226, "immedi": 5227, "glish ": 5228, "please": 5229, "stand ": 5230, "combi": 5231, "to you": 5232, "alents": 5233, " please ": 5234, "thre": 5235, "final ": 5236, "l term": 5237, "presenta": 5238, " break": 5239, "ران ": 5240, " aspect": 5241, " feel ": 5242, "reco": 5243, " style": 5244, " imm": 5245, "things ": 5246, "ousa": 5247, " and re": 5248, " vari": 5249, "since ": 5250, "is deriv": 5251, "unisia": 5252, "er of ": 5253, " help ": 5254, "irect ": 5255, "ital": 5256, "en uses ": 5257, "نصف ": 5258, "nds to": 5259, " a direc": 5260, "istence ": 5261, "ging th": 5262, "hund": 5263, " be used": 5264, "se or ": 5265, "ectal ": 5266, "wed term": 5267, "phon": 5268, "onetic": 5269, "five": 5270, " affirm": 5271, "pronoun ": 5272, "see ": 5273, " especia": 5274, "ective": 5275, "ader": 5276, " be a ": 5277, "dea of": 5278, "py ": 5279, " war": 5280, "accurate": 5281, " 3 ": 5282, "lead": 5283, "see": 5284, "give me ": 5285, " money": 5286, " you are": 5287, "fill": 5288, "iful": 5289, " ele": 5290, "place ": 5291, "associ": 5292, "ija ": 5293, "tanding ": 5294, " ask ": 5295, "at the e": 5296, "tions in": 5297, "quival": 5298, "i dont": 5299, "ndred ": 5300, " friend": 5301, "nct ": 5302, " how m": 5303, "bic the ": 5304, "ct if ": 5305, "jection": 5306, "cogni": 5307, "is an ": 5308, "n to": 5309, "d by": 5310, "وقتا": 5311, " regi": 5312, " okay": 5313, "message ": 5314, "l weight": 5315, "act ": 5316, " adap": 5317, "normal": 5318, " ent": 5319, "i aime": 5320, "s not ": 5321, " convey ": 5322, "eness ": 5323, "fast": 5324, "hello": 5325, "sh this ": 5326, "directly": 5327, "has its ": 5328, " mes": 5329, " conj": 5330, " inclu": 5331, "here is ": 5332, "ion or": 5333, " event": 5334, "morning ": 5335, "pear": 5336, "kept": 5337, " carry": 5338, "ency ": 5339, " the pre": 5340, "iginal t": 5341, " leave": 5342, "qad": 5343, "its own ": 5344, "mentio": 5345, " own": 5346, "my d": 5347, "s comp": 5348, "is borro": 5349, "er or ": 5350, "ation of": 5351, "und ": 5352, "standa": 5353, "told me ": 5354, "ness or ": 5355, "vice": 5356, " appe": 5357, "hang": 5358, " further": 5359, "ما ma": 5360, " asking": 5361, " nuances": 5362, " hal": 5363, "dable ": 5364, "ed it ": 5365, "frustr": 5366, "help ": 5367, "dra": 5368, " still": 5369, "ing from": 5370, " are not": 5371, "oad": 5372, " weight ": 5373, "istent": 5374, "clarific": 5375, "tion to": 5376, "lier": 5377, " retai": 5378, "ly or ": 5379, "brother ": 5380, "ly and ": 5381, "respons": 5382, "umer": 5383, "oint": 5384, " 4 ": 5385, "ioned ": 5386, "orrow ": 5387, "ionship ": 5388, "aughter": 5389, "ries": 5390, "empl": 5391, "syntax": 5392, " phone": 5393, "next": 5394, "ean ": 5395, "conj": 5396, "s no": 5397, "to d": 5398, "every ": 5399, " morning": 5400, " sets ": 5401, " that is": 5402, "ake ": 5403, "going to": 5404, "actions ": 5405, "ياخي ": 5406, "ayer": 5407, "line": 5408, " across": 5409, "ly under": 5410, " another": 5411, "ce or ": 5412, "problem": 5413, "hens": 5414, " value": 5415, "ker is": 5416, "istic": 5417, "ree ": 5418, "uj": 5419, "or you": 5420, " upo": 5421, "qal": 5422, "sur": 5423, "imes": 5424, "country ": 5425, " again": 5426, "فم": 5427, "concern": 5428, "king for": 5429, " ear": 5430, "had ": 5431, "money ": 5432, " jo": 5433, " been": 5434, "it see": 5435, "of a": 5436, "leave ": 5437, "on captu": 5438, "regi": 5439, " fra": 5440, "to mea": 5441, "ately ": 5442, " past ": 5443, " wid": 5444, " share": 5445, "لاف ": 5446, "cessary ": 5447, "oing": 5448, "of sen": 5449, "wide": 5450, "sand": 5451, "mix": 5452, "نا an": 5453, " connota": 5454, "terms ": 5455, "es in ": 5456, "sphere": 5457, "belief": 5458, "for you ": 5459, "rucial": 5460, "do you": 5461, "manne": 5462, " ident": 5463, " concern": 5464, "thank ": 5465, " bil": 5466, "the root": 5467, " comes": 5468, "cs of": 5469, "uals": 5470, " thought": 5471, "construc": 5472, " daught": 5473, "that are": 5474, "mporta": 5475, " sou": 5476, "ively ": 5477, " wa ": 5478, " sound": 5479, " going": 5480, "should": 5481, "tion in ": 5482, "book ": 5483, "oment ": 5484, "feeling ": 5485, " is deri": 5486, "subject ": 5487, " shi": 5488, " focus": 5489, " lef": 5490, "nner ": 5491, "s 5 ": 5492, "word is ": 5493, " using": 5494, "away": 5495, "oday": 5496, " longer ": 5497, "gather": 5498, " and is ": 5499, " fil": 5500, "among ": 5501, "idea of ": 5502, "leve": 5503, "inquir": 5504, "ion you ": 5505, " next": 5506, " invol": 5507, "ging ": 5508, "ated": 5509, "ect to": 5510, " hol": 5511, "at the": 5512, "known ": 5513, "ack of": 5514, "nt from ": 5515, " the roo": 5516, "an which": 5517, "omorro": 5518, "anwords ": 5519, "omeone": 5520, "and and ": 5521, "flui": 5522, "ick": 5523, "s differ": 5524, "are not ": 5525, "polite": 5526, "keep": 5527, "ctor": 5528, "ob": 5529, "ting a": 5530, "god will": 5531, " wha": 5532, "t for ": 5533, "erical": 5534, "been": 5535, "بيك ": 5536, "nce and ": 5537, "has a ": 5538, "we will ": 5539, "besh": 5540, " do not ": 5541, "fini": 5542, "identi": 5543, " necess": 5544, " to its ": 5545, "coming ": 5546, " respons": 5547, "outs": 5548, "a bi": 5549, " wai": 5550, " fru": 5551, " communi": 5552, " din": 5553, "ion to": 5554, "text or ": 5555, "raw ": 5556, " purpo": 5557, " new ": 5558, "owards": 5559, " the a": 5560, " woman": 5561, "urrent": 5562, "terday ": 5563, "based ": 5564, "ruth": 5565, "af ": 5566, " tends": 5567, "small": 5568, "cular ": 5569, "ماذا": 5570, "شاالله": 5571, "fulness": 5572, "distinct": 5573, "endear": 5574, " are you": 5575, "هاني ": 5576, " urgenc": 5577, "however": 5578, "infor": 5579, "reinfo": 5580, "لاباس": 5581, "مالا ": 5582, "thats it": 5583, "yes or ": 5584, "تلي ": 5585, "inine ": 5586, "adha": 5587, " تي ": 5588, " or that": 5589, "انشا": 5590, " a pos": 5591, "fine": 5592, " immedia": 5593, "ه ah ": 5594, " rei": 5595, " sh": 5596, " hey": 5597, "lect is ": 5598, "i swear": 5599, " doing": 5600, " ها ": 5601, "or not": 5602, "قالتل": 5603, "doing ": 5604, "sh if ": 5605, "s or to ": 5606, "phonetic": 5607, "einfor": 5608, " ak": 5609, "verb": 5610, "grammar": 5611, "sound ": 5612, " agre": 5613, "fix": 5614, " femin": 5615, "مشيت": 5616, "sh it ": 5617, "لا لا ": 5618, "ompared ": 5619, "iday": 5620, " verb": 5621, " i told ": 5622, "arment": 5623, "tion put": 5624, "mada": 5625, "no no ": 5626, "ruthfu": 5627, "la this ": 5628, "erea": 5629, "byword": 5630, "affirm": 5631, " i dont ": 5632, " or you ": 5633, "باس ": 5634, "ayer of ": 5635, " a layer": 5636, "ossibl": 5637, "ifferenc": 5638, "nowle": 5639, "ckno": 5640, "ذهب": 5641, "amal": 5642, "femini": 5643, "good or ": 5644, "rama": 5645, "pref": 5646, "it often": 5647, "wher": 5648, " ماذا": 5649, "ity or t": 5650, "efix": 5651, "or that ": 5652, "tatement": 5653, "nal tone": 5654, "or truth": 5655, "مدلله ": 5656, " well": 5657, "minine": 5658, " or not ": 5659, "its a ": 5660, "first": 5661, "cing t": 5662, "lly use ": 5663, "e sincer": 5664, " ما ma": 5665, "wled": 5666, "it serve": 5667, "food": 5668, " a bit": 5669, "mana": 5670, "ect it": 5671, " god w": 5672, "daughter": 5673, " hak": 5674, "شني ": 5675, "a casual": 5676, "or ack": 5677, "dgment": 5678, "ogether": 5679, "listic": 5680, "se ": 5681, " simply ": 5682, " i swear": 5683, "نتي ": 5684, "في fi": 5685, " serves ": 5686, "bic or d": 5687, "حاصيل": 5688, "it or ": 5689, " ant": 5690, "kho": 5691, "lbeing ": 5692, " or well": 5693, "a for ": 5694, "familiar": 5695, "tends to": 5696, "dan ": 5697, "frequ": 5698, "صيلو ": 5699, "morrow": 5700, "na this ": 5701, "s reflec": 5702, "today ": 5703, " healt": 5704, "or the": 5705, "he told ": 5706, " willi": 5707, "ن al": 5708, "or h": 5709, "leep": 5710, "enga": 5711, "hoice of": 5712, "نت int": 5713, "hing is ": 5714, "fina": 5715, "simply": 5716, "it more ": 5717, "hadh": 5718, "بش besh": 5719, "entire": 5720, "wall": 5721, "tener ": 5722, "d it": 5723, "a little": 5724, " whereas": 5725, "omorrow ": 5726, " frequ": 5727, "alth": 5728, "so or ": 5729, "e about ": 5730, "my l": 5731, "ي ey": 5732, " strong ": 5733, "it under": 5734, "tion 2 ": 5735, " to her ": 5736, "بحذا": 5737, " sense": 5738, "word for": 5739, " we will": 5740, "روح ": 5741, "is verb ": 5742, " go out ": 5743, " due to ": 5744, "لدي ": 5745, "saw ": 5746, "various ": 5747, "ncy or": 5748, "ister ": 5749, "duce a ": 5750, "break": 5751, "econd ": 5752, "or we ": 5753, "really": 5754, "or be": 5755, "tionate ": 5756, "hum ": 5757, "honest": 5758, "attern": 5759, "lly be": 5760, "manner ": 5761, " patte": 5762, "mosphere": 5763, " lord ": 5764, " preposi": 5765, "فهمت ": 5766, "heal": 5767, " conjug": 5768, "certaint": 5769, "forms ": 5770, "here it ": 5771, " for you": 5772, " it more": 5773, "tense ": 5774, "corpora": 5775, " to how ": 5776, "immediac": 5777, "nu ": 5778, "ep 2 exp": 5779, " good or": 5780, "بنتي": 5781, "elling": 5782, " to": 5783, "l in": 5784, " rul": 5785, "aliz": 5786, "or this ": 5787, " انشا": 5788, "days": 5789, "ic choic": 5790, "ek ": 5791, "sly ": 5792, "ولدي": 5793, "ittle ": 5794, "مضان": 5795, "re com": 5796, " el": 5797, "male": 5798, "ediacy ": 5799, "that or ": 5800, " لابا": 5801, " yea": 5802, " realiz": 5803, " listen ": 5804, " really ": 5805, " bu": 5806, "to go ": 5807, " today": 5808, " speak": 5809, "غادي ": 5810, "natural ": 5811, "surpris": 5812, "so it ": 5813, "it means": 5814, "es posse": 5815, "قلتلك ": 5816, "tell me ": 5817, "der": 5818, "هكاكا": 5819, " to yes": 5820, "llah ": 5821, "زلت": 5822, "ma this ": 5823, "able to ": 5824, "s you ": 5825, "positive": 5826, "simpler ": 5827, "second ": 5828, "لا la": 5829, "me or ": 5830, " put": 5831, "ensi": 5832, "sed to": 5833, "to her": 5834, "it might": 5835, " message": 5836, "khi": 5837, "fi this ": 5838, "more f": 5839, " 5 ": 5840, " no no": 5841, " to go": 5842, "re of ": 5843, "s import": 5844, "or alt": 5845, " to oh ": 5846, "sfa": 5847, "n this c": 5848, "tion 3 ": 5849, "itive ": 5850, "counter": 5851, "tes to i": 5852, "nal text": 5853, " a nega": 5854, "h this t": 5855, " food ": 5856, "i unders": 5857, "ي yes": 5858, " into ": 5859, "mont": 5860, "carries ": 5861, "with you": 5862, "it could": 5863, " purpose": 5864, "as well ": 5865, " take ": 5866, "hoices ": 5867, "e verb ": 5868, "ما is a": 5869, " a lit": 5870, " of ende": 5871, "gage": 5872, "the choi": 5873, " little ": 5874, " or and ": 5875, "ا ha": 5876, "from ber": 5877, "tly to": 5878, " liste": 5879, "feat": 5880, " keep ": 5881, "purpose": 5882, " to mean": 5883, "يا ولد": 5884, "sistent ": 5885, "kh": 5886, "عرفش ": 5887, " to him ": 5888, "during ": 5889, "ssive ": 5890, "speak ": 5891, " relaxed": 5892, " eat": 5893, "the msa ": 5894, " so it": 5895, "last": 5896, "ces the ": 5897, "recogniz": 5898, "i didnt": 5899, "نت a": 5900, "e or to ": 5901, "atures": 5902, "connota": 5903, "ayy": 5904, " flu": 5905, " simpler": 5906, "es it ": 5907, "wa this ": 5908, "at this ": 5909, "terpart": 5910, "asis or": 5911, "ما نعرف": 5912, " but is ": 5913, "by step ": 5914, "relaxed": 5915, "term of ": 5916, " always": 5917, "complex": 5918, "snt": 5919, "it impli": 5920, "sias": 5921, "but also": 5922, "device": 5923, "thats ": 5924, "wont": 5925, "t inco": 5926, "old you ": 5927, "s it or ": 5928, " sle": 5929, "expect": 5930, "prise or": 5931, "the pr": 5932, "shor": 5933, "يا بنت": 5934, "gnizable": 5935, "نا ana ": 5936, " to do": 5937, " syntax": 5938, " lot": 5939, "better ": 5940, "ually ": 5941, "general ": 5942, "flex": 5943, " اش ": 5944, "معنتها ": 5945, " ta": 5946, "to i": 5947, " belong": 5948, "is pre": 5949, "lth ": 5950, " text is": 5951, "finish": 5952, "its not ": 5953, " we are ": 5954, " do you ": 5955, "ي is a": 5956, "accept": 5957, " current": 5958, "is term ": 5959, "eah ": 5960, "ذا ma": 5961, " بالله": 5962, "nality": 5963, " tri": 5964, " it se": 5965, "ulti": 5966, "يتي ": 5967, "ation 2 ": 5968, "stud": 5969, " or what": 5970, "nes ": 5971, "tperson": 5972, "luid": 5973, " widely ": 5974, "ary sig": 5975, "ديما ": 5976, "nta ": 5977, "a is a": 5978, " هاني ": 5979, " bah": 5980, "presence": 5981, "ni this ": 5982, "earlier": 5983, "i have": 5984, " presenc": 5985, "a but ": 5986, "eaning": 5987, " word": 5988, "quently ": 5989, "نا i ": 5990, "t text ": 5991, "as it ": 5992, "s for ": 5993, "faction ": 5994, "warm": 5995, "s how ": 5996, "enjo": 5997, "or and": 5998, "of ende": 5999, "culture ": 6000, "sets a": 6001, "تمشي": 6002, "hn": 6003, " kep": 6004, "a bit ": 6005, "بالله": 6006, " or it": 6007, " general": 6008, "asis ": 6009, " maad": 6010, "uncert": 6011, "ready ": 6012, "whats ": 6013, " year ": 6014, "ceptance": 6015, "aa ": 6016, " saw": 6017, "listener": 6018, " swear": 6019, " posit": 6020, "you will": 6021, "ت i ": 6022, "or i am ": 6023, "r or": 6024, "s as a": 6025, "walk": 6026, "tomo": 6027, "hab ": 6028, "conveys ": 6029, "valent ": 6030, "ct from ": 6031, "draw ": 6032, "and you ": 6033, "clarif": 6034, "wfa": 6035, " ram": 6036, " the sta": 6037, " a sta": 6038, " tomorro": 6039, "يه ": 6040, "darija ": 6041, "intent": 6042, "moment": 6043, " point": 6044, "seeks ": 6045, "or well ": 6046, "te to ": 6047, "usual ": 6048, " ياخي ": 6049, " holid": 6050, "offe": 6051, " surpris": 6052, "باد ": 6053, " arr": 6054, " or ac": 6055, "erves ": 6056, " but it ": 6057, "rci": 6058, " now or ": 6059, "go out": 6060, "means no": 6061, "e 3 ": 6062, " or we": 6063, "b to go ": 6064, "satis": 6065, "ic but": 6066, " فهمت ": 6067, "كاكا": 6068, "adds a l": 6069, "confid": 6070, "ident ": 6071, "حاجه ": 6072, "صباح ": 6073, " by step": 6074, "دونك ": 6075, "tech": 6076, "ه لل": 6077, " شا": 6078, "ان ش": 6079, " نهار ": 6080, "ضحك": 6081, "ه هذ": 6082, " ديما ": 6083, "تو ن": 6084, "sectio": 6085, "chnical ": 6086, "كل شي ": 6087, "بيه ": 6088, "echn": 6089, " section": 6090, "قهو": 6091, "ed text ": 6092, "key ": 6093, "ظهر": 6094, "صاحب": 6095, " عندي ": 6096, "hnical": 6097, "خرج": 6098, " step 1 ": 6099, " step 2 ": 6100, " لاباس ": 6101, "es from ": 6102, " فيك": 6103, " تجي": 6104, "عباد": 6105, "تاح ": 6106, "بلاص": 6107, "رمضان": 6108, "بعث": 6109, "نيش ": 6110, "شويه ": 6111, "idence": 6112, " التونسي": 6113, "نت ": 6114, "روحي": 6115, " ما نعرف": 6116, " وكل": 6117, "يام ": 6118, "ونك ": 6119, "خمم": 6120, "هلا ": 6121, "دنيا ": 6122, "وكل ": 6123, "راني ": 6124, "ظيم": 6125, " تعمل ": 6126, "step by ": 6127, " عليك ": 6128, "نامج": 6129, "رام ": 6130, "بدا ": 6131, " كل شي": 6132, " دون": 6133, "تي ": 6134, "وقتها ": 6135, "تفرج": 6136, "حمد ": 6137, "تصور": 6138, "dence ": 6139, "وخ": 6140, "خويا ": 6141, " حاجه ": 6142, "راس": 6143, " دار": 6144, " tec": 6145, "دت ": 6146, "تشوف": 6147, " confide": 6148, "يخرج": 6149, "ليل": 6150, "نبد": 6151, "فطر": 6152, "صحاب": 6153, "كت ": 6154, "ه ب": 6155, "صراح": 6156, " روحي": 6157, "وحد": 6158, "كمل ": 6159, "جمع": 6160, "جماع": 6161, "صغار": 6162, "فت ": 6163, "ماشي": 6164, "عاود": 6165, "step 2 ": 6166, "حبا ب": 6167, " قعد": 6168, " دخل": 6169, " مشيت": 6170, "لقيت": 6171, "عامل ": 6172, "ghted": 6173, "ضي ساع": 6174, "عج": 6175, " عمر": 6176, "راجل ": 6177, "nto the ": 6178, "هك ": 6179, " باب": 6180, "يعيش": 6181, "ted text": 6182, "هذاك": 6183, " روحك": 6184, "قالتلي ": 6185, "اكل ": 6186, "سه ": 6187, " خرج": 6188, "كهو ": 6189, "تحكي": 6190, "مرحب": 6191, "انشاالله": 6192, "يشك ": 6193, "هذه ": 6194, "رمال ": 6195, "نا ما ": 6196, "ماع": 6197, " ياسر ": 6198, "رحم": 6199, " يعطي": 6200, " الدنيا ": 6201, " نمشي ": 6202, "ر و ": 6203, "لي ما ": 6204, "هوما ": 6205, " الواحد ": 6206, "فه ": 6207, "ه مش": 6208, " حكاي": 6209, "يكم ": 6210, "ريت ": 6211, "فون ": 6212, " نهار ال": 6213, "هاك ال": 6214, "سلم": 6215, "لكم ": 6216, "رلي ": 6217, "ريم ": 6218, "ctions": 6219, "ه اخر": 6220, "همش ": 6221, "stem": 6222, "تكلم": 6223, " البارح ": 6224, "ك الله": 6225, "شعر": 6226, "مره ": 6227, "يا باهي ": 6228, "جب": 6229, " الصباح ": 6230, "تت ": 6231, "اصيلو ": 6232, " قالتلي ": 6233, "حاصيلو ": 6234, "لك ": 6235, "قابل": 6236, "عامل": 6237, "بالحق": 6238, " تعرف ": 6239, " راس": 6240, "كيف كيف ": 6241, "يبدا": 6242, " صاح": 6243, "روحك": 6244, "بيت ": 6245, "للك ": 6246, "vie": 6247, "عال": 6248, "سك ": 6249, " تلق": 6250, " خويا ": 6251, " نعمل ": 6252, "focusing": 6253, "خبار": 6254, "ما عاد": 6255, "حط": 6256, "بعيد": 6257, "سكن": 6258, "نلق": 6259, " حاص": 6260, "ها ما ": 6261, "وبعد": 6262, "راهي": 6263, "tion int": 6264, "جت ": 6265, "جدا": 6266, "ولد ": 6267, "بابا": 6268, "كما ": 6269, "يكا ": 6270, " الحكاي": 6271, "فيك ": 6272, "ل و ": 6273, "محمد ": 6274, " بحذا": 6275, "كل يوم": 6276, "برا ": 6277, "باش ن": 6278, "حبيت": 6279, "ت و ": 6280, "امج ": 6281, "يا ": 6282, " معنتها ": 6283, "كرهب": 6284, "اود ": 6285, "وذ": 6286, "كذا": 6287, " الجمع": 6288, " الليل": 6289, " يا ولدي": 6290, " ولد": 6291, " تمشي ": 6292, " باهي": 6293, "عشي": 6294, "ep by ": 6295, " و و ": 6296, "فهمتني ": 6297, "نور": 6298, "تدخل": 6299, "عربي": 6300, "ك يا": 6301, " نجي": 6302, "بكري": 6303, "م و ": 6304, " عرف": 6305, " عبد": 6306, "نعرفش ": 6307, "طه ": 6308, " ريت": 6309, "هه": 6310, "olo": 6311, "يان ": 6312, "gy ": 6313, "مني": 6314, "هك": 6315, " ون": 6316, "ش عا": 6317, " لا لا ": 6318, "ليف": 6319, "نخدم": 6320, "جيب ": 6321, " تقو": 6322, "جبد": 6323, "لا ما ": 6324, "ختي": 6325, " ما ن": 6326, "يقعد": 6327, "ك و ": 6328, "نخ": 6329, " غدو": 6330, " اما ": 6331, " يعمل ": 6332, " تخدم": 6333, " ماشي": 6334, "لانه": 6335, " يا بنتي": 6336, "ه يا": 6337, " عليها ": 6338, "اول": 6339, "يا ربي": 6340, " هوما ": 6341, "cript": 6342, "تخرج": 6343, " ولي": 6344, " غادي ": 6345, "برنا": 6346, " الاخر": 6347, "وش": 6348, " شف": 6349, " صح": 6350, " قلتلك": 6351, "ه هي": 6352, "بص": 6353, "d text": 6354, " الاخ": 6355, "فرج ": 6356, "ت لل": 6357, " وبعد ": 6358, "بوك ": 6359, "سع ": 6360, "11 ": 6361, "كا هو ": 6362, " محم": 6363, "يدخل": 6364, "قعدت ": 6365, " تشوف": 6366, "خلي ": 6367, "زعم": 6368, " ان شا": 6369, " الدار": 6370, "هاذاكا": 6371, "ونا ": 6372, "قولل": 6373, " ليل": 6374, "هي ": 6375, "زيز": 6376, " حبي": 6377, " حال": 6378, " جمع": 6379, " وصل": 6380, "تك ": 6381, "وهو ": 6382, "وا في ": 6383, "متع ": 6384, "نر": 6385, "ساعتين ": 6386, "حض": 6387, "قالت ": 6388, "عملوا ": 6389, " عملت ": 6390, "ها عل": 6391, "هبط ": 6392, "يون ": 6393, "كه ": 6394, "معاك": 6395, " فلوس ": 6396, "شن ": 6397, "حسب ": 6398, " فيهم ": 6399, "حش": 6400, "بارح ": 6401, "صيف": 6402, "ه اللي ": 6403, "ضر": 6404, "سامح": 6405, "عيب ": 6406, " يخدم": 6407, " هاذاك": 6408, "سوس": 6409, "علم ": 6410, "تبدا": 6411, " الجاي": 6412, "ew ": 6413, " بيها ": 6414, "وا في ال": 6415, " نحب ن": 6416, "شبي": 6417, "لدار": 6418, "ك الصح": 6419, "data": 6420, "رتي": 6421, "ش بش ": 6422, "بني ": 6423, "كين": 6424, "بداو": 6425, "ماضي ": 6426, "ي لا ": 6427, "ش عل": 6428, "عرس ": 6429, "كذ": 6430, "قلتله ": 6431, "ctions i": 6432, "يا بنتي ": 6433, "قاف": 6434, "لو ": 6435, "ه ان": 6436, "ections ": 6437, "حط ": 6438, "يا ولدي ": 6439, "عنا ": 6440, "نتوما ": 6441, "نسمع": 6442, " بالحق": 6443, "فل": 6444, "جيت ": 6445, " نقل": 6446, "خايب": 6447, "public": 6448, "يط": 6449, "طيب ": 6450, "جمعه ": 6451, "باح الخ": 6452, " دينار": 6453, "كي ن": 6454, "رتا": 6455, " سي ": 6456, "وله ": 6457, "و لا ": 6458, " تخ": 6459, "مازال ": 6460, "ه لا ": 6461, "ب و ": 6462, "قيقه ": 6463, " العاد": 6464, "ناخذ": 6465, "ليت ": 6466, " جاي": 6467, "كل واحد ": 6468, "بربي": 6469, "الخير ": 6470, "تبار": 6471, "وو": 6472, "رسمي": 6473, "موت ": 6474, " ريم": 6475, "كل شي": 6476, "code": 6477, " طلع": 6478, "بش ن": 6479, " تحكي": 6480, "ليك ": 6481, "لاص": 6482, "فيهم ": 6483, "dro": 6484, " الحاج": 6485, " شني ": 6486, "خطر ": 6487, "مبعد ": 6488, " سنين ": 6489, " ير": 6490, "اله ": 6491, "كانش ": 6492, " ربي ي": 6493, " هكاكا": 6494, " ورا": 6495, "func": 6496, " نعرف": 6497, "تقعد": 6498, "بحر ": 6499, "هما ": 6500, "نعطي": 6501, " نشوف ": 6502, "صعي": 6503, "ابا ": 6504, "زه ": 6505, "نقص": 6506, " ديوان": 6507, "يت ن": 6508, "غلط": 6509, "ي و": 6510, " الخدم": 6511, "كيد ": 6512, "وكم ": 6513, "نمو": 6514, "خز": 6515, "سين ": 6516, "most": 6517, "يلي ": 6518, "حر ": 6519, " رمضان": 6520, " مرحب": 6521, "كبيره ": 6522, "لي هو ": 6523, "ن شا": 6524, "ي من ": 6525, "قلتلها ": 6526, "تقبل": 6527, " كهو ": 6528, " صباح ": 6529, "بالك ": 6530, "رنام": 6531, "شهد": 6532, " فهمتني ": 6533, "قيت ": 6534, "تلك ": 6535, "ل شي": 6536, "وينك ": 6537, "تقول": 6538, "تلقا": 6539, " يعيش": 6540, "28": 6541, " بكر": 6542, " i can": 6543, "ياخذ": 6544, "نخل": 6545, " يمشي ": 6546, "وانت": 6547, "وقت اللي": 6548, "نكم": 6549, "اااا": 6550, "فش ": 6551, " نبد": 6552, "ك في ": 6553, "tor ": 6554, "خرجوا ": 6555, "جد ": 6556, "ظاهر": 6557, "msa and ": 6558, "ينه ": 6559, "حاجات ": 6560, " مازال ": 6561, "كعب": 6562, "12 ": 6563, "زايد": 6564, "ه را": 6565, " جاب": 6566, "سك": 6567, "مع بعض": 6568, " قلتلها ": 6569, "3la": 6570, "dm ": 6571, "rj": 6572, "lb": 6573, "t7": 6574, "lw ": 6575, "تقييم": 6576, "تحديد": 6577, " mou": 6578, " بخطو": 6579, " lm": 6580, "a7": 6581, "yya ": 6582, "b3": 6583, "5d": 6584, "3d ": 6585, "y9": 6586, "lw": 6587, "tw ": 6588, "ky ": 6589, "hm ": 6590, "a3": 6591, "y7": 6592, "rch": 6593, "هوا": 6594, "حدد ": 6595, "ابق": 6596, "27": 6597, "m y": 6598, "ش نقول ": 6599, "rb ": 6600, "ych": 6601, "kl ": 6602, " l7": 6603, "mw": 6604, "ات في ": 6605, "b7": 6606, "yt ": 6607, "l5": 6608, "لوجي": 6609, "mt3 ": 6610, "wch": 6611, "y5": 6612, "صنا": 6613, "ات هاذي": 6614, "r9": 6615, "عبار": 6616, "brch": 6617, "40": 6618, "دي ": 6619, "عنوان ": 6620, "سود": 6621, "كتش": 6622, "المعلوم": 6623, "لعب": 6624, "bch y": 6625, "bw": 6626, "قدر": 6627, "wj": 6628, "طفال ": 6629, "3ml ": 6630, "rw": 6631, " تحت ": 6632, " lk": 6633, " تعلي": 6634, "شعور": 6635, "لكتر": 6636, "hw ": 6637, "77": 6638, " حول ": 6639, " mt3": 6640, " فوق": 6641, "سباب": 6642, " خلينا ن": 6643, "يلعب": 6644, "ناع": 6645, " 3la": 6646, " المعط": 6647, "ion اكتب": 6648, "مثل ": 6649, " المراجع": 6650, "صدقا": 6651, "سلو": 6652, "نستن": 6653, "bt ": 6654, " اللغ": 6655, "pothes": 6656, "فرص": 6657, "15 ": 6658, " واحد": 6659, "ضافي": 6660, "مساعد": 6661, " l3": 6662, "ال ": 6663, "الصحيح": 6664, " تجا": 6665, " تاريخ": 6666, "ناس اللي": 6667, "هند": 6668, "مدرس": 6669, "ميز": 6670, " بالنظ": 6671, " بينما ": 6672, "حاول ": 6673, "طلح": 6674, "a9": 6675, " رياض": 6676, "نظم": 6677, "اختار ": 6678, "شخاص": 6679, "sb": 6680, " البري": 6681, "w fy ": 6682, "فرق": 6683, "ky": 6684, "ذا كانت ": 6685, "يطالي": 6686, " 0": 6687, "تنتج ": 6688, "فقر": 6689, " options": 6690, "دقيق": 6691, " الرياض": 6692, "a3 ": 6693, "نتيج": 6694, "تعلم": 6695, "غلب": 6696, "غرف": 6697, "ريد": 6698, " الجديد": 6699, "mt3": 6700, " راجل ": 6701, "درج": 6702, "يمكن ": 6703, "7k": 6704, "ماكن": 6705, "7b ": 6706, "نواع": 6707, "يستعمل": 6708, "بداي": 6709, "اصيل": 6710, "تز": 6711, "نما": 6712, "تغي": 6713, " الساب": 6714, "طبيق ": 6715, "twn": 6716, "sk": 6717, "الغ": 6718, "العنوان": 6719, "w y": 6720, "a the ": 6721, " طوي": 6722, "ياضي": 6723, "مارس": 6724, " عملي": 6725, "حيوا": 6726, "مطعم": 6727, "من خلال": 6728, "ويل": 6729, "tw": 6730, " محا": 6731, " العبار": 6732, "دل": 6733, "نظر ": 6734, "bw ": 6735, "حدود": 6736, "ناعي": 6737, "وا الم": 6738, "wt ": 6739, " مف": 6740, "مشاكل ": 6741, "ذكر ": 6742, "تطبي": 6743, "اللي ي": 6744, "نجموا ن": 6745, "المراجع": 6746, "سكان": 6747, "kn ": 6748, "نشط": 6749, " النها": 6750, "29": 6751, "بما ": 6752, " المهم": 6753, "التالي": 6754, "روسي": 6755, "عام": 6756, "مشاع": 6757, "سوق": 6758, "لذلك": 6759, "كنولوج": 6760, "النص": 6761, "هل": 6762, "يعني ": 6763, "عناص": 6764, "يبد": 6765, "حتاج": 6766, "تعاو": 6767, "60": 6768, "نظر لل": 6769, "صديق": 6770, "يانات ": 6771, "تطور": 6772, "ظروف ": 6773, " جمي": 6774, "ين في ": 6775, "3nd": 6776, "9a ": 6777, "هور": 6778, "55": 6779, "في هالم": 6780, "dw ": 6781, "قبو": 6782, " حول ا": 6783, "كسجين ": 6784, " الميلاد": 6785, "حادث": 6786, "wz": 6787, " عا": 6788, "5y ": 6789, "fy": 6790, "rb": 6791, "yf ": 6792, " الفقر": 6793, " 1 نح": 6794, "بين": 6795, "بعد ما ": 6796, " تعني ": 6797, "تنوع": 6798, "lz": 6799, "حدد": 6800, "s7": 6801, "اسب": 6802, "n9": 6803, "حرار": 6804, " الترك": 6805, "تاح": 6806, "لابس ": 6807, " الصغير": 6808, "غاني ": 6809, "تقدم": 6810, " ممت": 6811, " المقال": 6812, " وبالت": 6813, "نجموا ": 6814, "3ly": 6815, " المشا": 6816, "هداف": 6817, " تجرب": 6818, "dd": 6819, "ستنتجوا ": 6820, "تون ": 6821, "هناك ": 6822, "رر ": 6823, "جوان": 6824, " مدين": 6825, "ليا ": 6826, "لندي": 6827, " معروف": 6828, "نتج": 6829, "25 ": 6830, "هذا": 6831, " ذكر": 6832, "في 19": 6833, "حفا": 6834, "هالت": 6835, " l9": 6836, "كونوا ": 6837, "مقارن": 6838, " العالمي": 6839, "خور": 6840, "يدي": 6841, "ضغط ": 6842, "ات عل": 6843, "تحت ": 6844, "بول ": 6845, " مثل ": 6846, "بشر": 6847, "yb ": 6848, "اظ عل": 6849, "حرب": 6850, "كاتب": 6851, "قع": 6852, "تشف": 6853, "lf": 6854, "تحرك": 6855, "t9": 6856, "ضو": 6857, "عز": 6858, "ول حاج": 6859, "fy l": 6860, "منا ن": 6861, " مزي": 6862, " في 19": 6863, " de ": 6864, "جزا": 6865, "lyh ": 6866, "ب من ": 6867, "lh ": 6868, "ديث": 6869, " كافي": 6870, "صط": 6871, "زوا": 6872, " العملي": 6873, "شيا": 6874, "وامل ": 6875, "رها": 6876, "رط": 6877, " البشر": 6878, " الذا": 6879, "wy ": 6880, "hes ": 6881, " تتعلق ": 6882, "ادث": 6883, "هال": 6884, "علومات ": 6885, "ركيب": 6886, " العلاق": 6887, "مجتم": 6888, " المدين": 6889, "طويل": 6890, " كتب": 6891, "ركيز": 6892, "شاعر": 6893, "تها": 6894, "bb ": 6895, " اسمها ": 6896, " الشمس": 6897, "79": 6898, "كسيد": 6899, "صنع": 6900, " بطريق": 6901, " قيم": 6902, " الموسيق": 6903, "3a ": 6904, "ال شنو": 6905, "الز": 6906, "ثقاف": 6907, "مقدم": 6908, " الهوا": 6909, " الطاق": 6910, " المنطق": 6911, " تستعمل": 6912, " 2i": 6913, " شرك": 6914, "فوا ": 6915, "حلي": 6916, "yt": 6917, "هور ": 6918, "موسيق": 6919, "ماري": 6920, "yl ": 6921, "هول": 6922, " كما ": 6923, " هناك ": 6924, "ذاتي": 6925, "ولا": 6926, "يذ": 6927, "حيث": 6928, "ينغ": 6929, "الخيار ": 6930, "يشوف": 6931, "المعطا": 6932, "فراد": 6933, "صص": 6934, "كثر": 6935, " قر": 6936, "واجه": 6937, "هالمهم": 6938, " يعني": 6939, "حوالي ": 6940, "nw ": 6941, "39": 6942, "غاز": 6943, "تواصل ": 6944, "3r": 6945, "جال ": 6946, " وس": 6947, " دقيق": 6948, " متن": 6949, "مشار": 6950, "ذكور": 6951, "93": 6952, "نترنت ": 6953, "وتر ": 6954, "غام": 6955, "dyd ": 6956, "لترا": 6957, "كشف": 6958, "شجا": 6959, " غري": 6960, "تصار": 6961, " الجز": 6962, " مثلا": 6963, "ويل ": 6964, "زيد": 6965, "سترالي": 6966, "امر": 6967, "ضمن ": 6968, "رخ": 6969, "بيان": 6970, "bouw": 6971, "ريطا": 6972, "وانات ": 6973, "جون ": 6974, " عنوان": 6975, "26": 6976, " موسيق": 6977, "غالب": 6978, "نوع": 6979, " الكبير": 6980, "شاكل": 6981, "ن الفرضي": 6982, "ا لل": 6983, "حاول": 6984, "تستعمل": 6985, " قدر": 6986, "نسا": 6987, "اتب ": 6988, " ويت": 6989, "ترف ": 6990, "ين الم": 6991, "فرنسي": 6992, "طراب": 6993, "bs ": 6994, "ت الجمل": 6995, "rh": 6996, " وزي": 6997, "wns ": 6998, "مكتب": 6999, "تلق": 7000, " المنتج ": 7001, "7b": 7002, "تقديم": 7003, "la l": 7004, "شمس": 7005, "سيار": 7006, " جاوب عل": 7007, "يلي": 7008, "يديو": 7009, " مثل ال": 7010, "تين": 7011, " في الس": 7012, "ice ": 7013, " المد": 7014, "wly": 7015, "فتح": 7016, "mw ": 7017, " يلزمك": 7018, "wy": 7019, "w 3": 7020, "swer ": 7021, "ملك": 7022, "قدر ": 7023, "nna": 7024, "يل ": 7025, " الاسم": 7026, "ym ": 7027, "fiy ": 7028, "تيري": 7029, " لغ": 7030, "دراس": 7031, "بطريق": 7032, " الثالث": 7033, "مارك": 7034, "ين في ال": 7035, " قصير": 7036, "سو": 7037, "ماش": 7038, "ريف ": 7039, "يساعد": 7040, "سهل ": 7041, " نجم ن": 7042, " 16": 7043, "3al": 7044, "3w ": 7045, "iyya ": 7046, "كتاب ": 7047, "برنامج": 7048, "شمال ": 7049, "ريا ": 7050, "منتج ": 7051, " حيوان": 7052, "كتاب": 7053, "غاب": 7054, "km ": 7055, "فق ": 7056, "m t": 7057, " 17": 7058, "ت الفرضي": 7059, "cra": 7060, " ترا": 7061, "199": 7062, " التعليم": 7063, "ال ال": 7064, "زرا": 7065, "قب ": 7066, "97": 7067, "دل عل": 7068, " المحل": 7069, "حفاظ عل": 7070, "لاند": 7071, "خيار ": 7072, "في الجمل": 7073, "باتات ": 7074, "نستنتج ": 7075, "العبار": 7076, "هاد": 7077, " للجمل": 7078, "ن الجمل": 7079, " تشير ": 7080, "صل عل": 7081, "اسم ": 7082, "لكن": 7083, " مقارن": 7084, " من قبل": 7085, "نوبي": 7086, "عادل": 7087, " مما ": 7088, "حيوانات ": 7089, "ات لل": 7090, "تعني ": 7091, "سال": 7092, "الفيلم ": 7093, "80": 7094, "نه ما ": 7095, " 198": 7096, "صعب": 7097, " عدد ": 7098, "جملتين ": 7099, "يتم ": 7100, "تك هي ": 7101, "مكتو": 7102, "علان": 7103, "ديق": 7104, "الكلمات ": 7105, "13 ": 7106, "عتبر ": 7107, "حرف": 7108, " 30": 7109, "خراج": 7110, "ذور": 7111, " قا": 7112, "جابتك ": 7113, "نجلترا": 7114, "خلق ": 7115, "دوار": 7116, "ناصر ال": 7117, "يورك": 7118, "نفس الشي": 7119, "يضا": 7120, " الذاتي": 7121, "ات مختلف": 7122, "وا ال": 7123, "قل من ": 7124, "حقق ": 7125, " اللي يت": 7126, " جان": 7127, " حوالي ": 7128, " وكان ": 7129, "بلا ": 7130, "ذا كنت": 7131, "ز ": 7132, "تلاف": 7133, " البي": 7134, "هاذم ": 7135, "خلاص": 7136, " العنوان": 7137, " الحيوان": 7138, "ضروري": 7139, " x": 7140, " شنو هي ": 7141, "برز": 7142, "ممث": 7143, "اهتمام": 7144, " مراجع": 7145, " جون ": 7146, " صور": 7147, "سف": 7148, " المعروف": 7149, "مثل": 7150, "وسط ": 7151, " هي ال": 7152, " قد ": 7153, " را": 7154, "نين": 7155, "نها": 7156, "تشمل ": 7157, "ات من ال": 7158, " حل ": 7159, " المدخل": 7160, "كافي": 7161, "ثل ": 7162, "استعمال ": 7163, "ثار": 7164, "مسير": 7165, "يرته": 7166, "بني": 7167, "استخدام ": 7168, "48": 7169, "حديث": 7170, " ما ينجم": 7171, " الكرب": 7172, "حتوي": 7173, "فكي": 7174, "شرا": 7175, "تمد عل": 7176, "رجح ": 7177, "مقال": 7178, "نقط": 7179, "بات": 7180, "اري": 7181, "قمي": 7182, "رنسي": 7183, "قول": 7184, "لخص": 7185, " العمل ": 7186, " تتبع": 7187, "نجاح": 7188, " المتو": 7189, "اضيع": 7190, "جانب ": 7191, "واضح ": 7192, "عديد": 7193, " الجنو": 7194, "21 ": 7195, " هو ال": 7196, "قرر ": 7197, "تمث": 7198, "زن ": 7199, "الموضوع": 7200, "كب ": 7201, " نظ": 7202, "نان": 7203, " بسرع": 7204, "وفر ": 7205, "يد من ال": 7206, "تمبر": 7207, "رغم ": 7208, "طرف ": 7209, "بريطا": 7210, " رسم": 7211, "قم ": 7212, "دولار": 7213, "هم الم": 7214, "نجاز": 7215, "14 ": 7216, "كسيد الك": 7217, " الفعل": 7218, " الشرك": 7219, "خبر": 7220, "مواد": 7221, " فعل": 7222, " لاعب": 7223, "وقع ": 7224, " الحيا": 7225, "وا مع ": 7226, "ين ال": 7227, "مبراط": 7228, "هالمراجع": 7229, " مرتبط": 7230, "اتحا": 7231, " بيت": 7232, "تحليل ": 7233, " الخيار ": 7234, "كتوبر": 7235, "حتو": 7236, "وير ": 7237, " ولا ": 7238, "كل ": 7239, " يلزم ": 7240, "فع": 7241, "وقت": 7242, " رياضي": 7243, "يعاو": 7244, "وا لل": 7245, " المف": 7246, "بسرع": 7247, "محتو": 7248, "مع ": 7249, "ان ": 7250, "سمي": 7251, "لندا": 7252, " القديم": 7253, " التقييم": 7254, "بعدين ": 7255, " فريق": 7256, "رث": 7257, "حصل": 7258, "بض": 7259, "ال عل": 7260, "جذ": 7261, " نص": 7262, "تقد ": 7263, "14": 7264, "مناط": 7265, "نحلل": 7266, "لفرضي": 7267, " درج": 7268, "رقي": 7269, "وصف ": 7270, "ارد ": 7271, "بر 19": 7272, "تطوي": 7273, "كونات ": 7274, " المعادل": 7275, "ستحي": 7276, "وراق": 7277, " الطبيعي": 7278, "تمتع": 7279, "دخا": 7280, " جوا": 7281, "حديق": 7282, "ن نستن": 7283, "كتور ": 7284, "صم": 7285, " السياق ": 7286, "مستخدم": 7287, "كفا": 7288, "رات": 7289, "نقاط": 7290, "موقع ": 7291, "ينجموا ي": 7292, "38": 7293, "الشخص": 7294, " المناسب": 7295, "فرحا": 7296, "استر": 7297, "قرب ": 7298, "السياق": 7299, " ينجموا ": 7300, " 2 نح": 7301, "ين عل": 7302, " يتم ": 7303, "بعد": 7304, "مع الم": 7305, " عرض": 7306, "حصا": 7307, "قوا ": 7308, " مما يجع": 7309, " التي ت": 7310, "ما فماش ": 7311, "بر عن ": 7312, " وفي ال": 7313, " وما ": 7314, "land": 7315, "ندا ": 7316, " طلب": 7317, "تطلب": 7318, "طبخ": 7319, "دراج": 7320, " الخاص": 7321, " ومع ذلك": 7322, " حرار": 7323, "يميا": 7324, "تعريف ": 7325, " سري": 7326, " اقر": 7327, "رح": 7328, "emis": 7329, "راضي ": 7330, "بحث عل": 7331, " في النص": 7332, "عوامل ": 7333, " 12 ": 7334, " الحرار": 7335, " شكل": 7336, "بون ": 7337, "كز عل": 7338, "ترتي": 7339, "15": 7340, "امع": 7341, "ت من ": 7342, " شخصي": 7343, "شب ": 7344, " مسير": 7345, "يزيد": 7346, "قب": 7347, "معادل": 7348, "يابا": 7349, "70": 7350, "ستخدام ": 7351, " طويل": 7352, "لحظ": 7353, " واق": 7354, "توفر": 7355, "وروبي": 7356, "وسط ال": 7357, "جهز": 7358, "صناع": 7359, "ين اللي ": 7360, "حان ": 7361, " صدي": 7362, " تنجم ت": 7363, "افظ عل": 7364, "نسخ": 7365, " من غير": 7366, " هار": 7367, "حيل ": 7368, "اجه": 7369, "ختار ": 7370, "قرا ال": 7371, "ض ": 7372, " زياد": 7373, "يقدم": 7374, " ويس": 7375, " تولد": 7376, "دن ": 7377, "ل من ": 7378, "pothesis": 7379, "س بال": 7380, " استعمال": 7381, "ينجمش ": 7382, "لات": 7383, "حيان": 7384, " الياب": 7385, "اقتصاد": 7386, " الشخصي": 7387, "معروف ": 7388, "وي عل": 7389, "فق": 7390, "صول عل": 7391, " واضح": 7392, "مكن": 7393, "باست": 7394, "حتمل ": 7395, " ويق": 7396, "ها من ": 7397, " جيم": 7398, "بين ال": 7399, "ثور": 7400, "ين الا": 7401, "ميل ": 7402, "لفزي": 7403, " بسي": 7404, " تقل": 7405, "المقدم": 7406, "اجتماعي": 7407, " نتيج": 7408, "13": 7409, "صر ": 7410, "100": 7411, " جاك": 7412, " البريطا": 7413, "37": 7414, "عطيش ": 7415, "فضا": 7416, "عبر ال": 7417, " الضو": 7418, "47": 7419, "36": 7420, "ها لل": 7421, "صاب": 7422, "ا من ": 7423, " طريق ": 7424, "مور ": 7425, "قرن ال": 7426, "تولد": 7427, "ثر": 7428, "لخطو": 7429, " قاعد": 7430, " سوا": 7431, "مفصل": 7432, "ناق": 7433, " متاعك ": 7434, " 199": 7435, "قين ": 7436, "المشكل": 7437, "فقد": 7438, "ظم": 7439, "نك": 7440, "قني": 7441, "تصني": 7442, "طلوب ": 7443, " بعدين ": 7444, " النات": 7445, "كير ": 7446, "تحقيق": 7447, " ii ": 7448, "استن": 7449, "ميا": 7450, "تويت": 7451, " تعليمي": 7452, "نباتا": 7453, "من قبل": 7454, "حماي": 7455, "تنتاج ": 7456, "كار": 7457, "دوري": 7458, "اقتر": 7459, " ويع": 7460, "ركز عل": 7461, "الجز": 7462, "جار": 7463, "يتحدث": 7464, " سان": 7465, "واعد": 7466, "كانتش ": 7467, "الاسم ال": 7468, " hy": 7469, " وغير": 7470, " giv": 7471, " التي ": 7472, "قاطع": 7473, "24 ": 7474, " الفرن": 7475, "معروف": 7476, " قالت ": 7477, "عبر ": 7478, " المذكور": 7479, "اقرا": 7480, "سلح": 7481, "ضيف ": 7482, " نيويو": 7483, "يات": 7484, "سيط": 7485, "هو ال": 7486, "ات الر": 7487, "ريك ": 7488, "تصرف": 7489, "تهم": 7490, "مار": 7491, "نقل ": 7492, "مستقبل": 7493, "عليق": 7494, " التاريخ": 7495, "يكل ": 7496, "نه ": 7497, "تماش": 7498, " الاحت": 7499, " المجموع": 7500, "خفض": 7501, " وزيد": 7502, "كريس": 7503, "جزير": 7504, "تفاصيل": 7505, " كانوا ي": 7506, " حقيق": 7507, " وجود ": 7508, "قاط ال": 7509, " منذ": 7510, "تكنو": 7511, "ول مر": 7512, "نولوجي": 7513, "ذكا": 7514, "غيير": 7515, " نظام": 7516, "مير ": 7517, "nswer ": 7518, "سكري": 7519, " ستي": 7520, "دور": 7521, " لمد": 7522, "قطع ": 7523, " الراجل ": 7524, "22 ": 7525, "نه كان": 7526, " تقدم": 7527, "ماي": 7528, "تطبيق ": 7529, " في المس": 7530, "نعم": 7531, "عناصر ال": 7532, " فنا": 7533, "ضرا": 7534, " جور": 7535, "ب في ": 7536, "ستان": 7537, "iven": 7538, "يران": 7539, "فكار ": 7540, "رسال": 7541, "توصل": 7542, "ادي": 7543, "كون من ": 7544, " العناص": 7545, " رجال ": 7546, "قاط ": 7547, "المقال ": 7548, "انتق": 7549, " الذ": 7550, "عشا": 7551, "56": 7552, "جل": 7553, "ستعمل ": 7554, "ضع": 7555, " تعريف": 7556, "فن ": 7557, " الحرب": 7558, "قرا": 7559, "فس": 7560, "انك ": 7561, "ملا": 7562, "بر عل": 7563, "مبارا": 7564, "الاجتماع": 7565, "ابع": 7566, "شعا": 7567, "عدم ": 7568, " المحي": 7569, "ndicate ": 7570, "to indic": 7571, "es 1 ": 7572, " reinfor": 7573, " speaker": 7574, "feminine": 7575, "m this ": 7576, "ramadan ": 7577, "l text ": 7578, "wherea": 7579, "ity and ": 7580, "my lord ": 7581, " pattern": 7582, "health": 7583, "reinfor": 7584, "nces in ": 7585, "is a voc": 7586, "hiya ": 7587, " during ": 7588, "pic ": 7589, "inde": 7590, "tomorrow": 7591, "er is ": 7592, "engage": 7593, "n affirm": 7594, "al term ": 7595, "features": 7596, " health ": 7597, "holi": 7598, "told you": 7599, " maadha": 7600, "d can be": 7601, "female": 7602, "البارح ": 7603, "tion is ": 7604, "mira": 7605, " emplo": 7606, "lays": 7607, "got ": 7608, " whole": 7609, "finality": 7610, " holiday": 7611, "itional ": 7612, " lay": 7613, " frustra": 7614, " final t": 7615, "took ": 7616, "n may ": 7617, " whats": 7618, "e of how": 7619, "bbi": 7620, "did not ": 7621, "perhap": 7622, "invol": 7623, "tely": 7624, "iousness": 7625, "al vs st": 7626, "emplo": 7627, "kul": 7628, "or only": 7629, "state of": 7630, " make it": 7631, "tell you": 7632, "repeated": 7633, " counter": 7634, "tant to ": 7635, " can mak": 7636, "did you ": 7637, "naam": 7638, "nk god ": 7639, "rcing t": 7640, "lex": 7641, "serious": 7642, "nacular ": 7643, "erpart": 7644, " li ": 7645, "min ": 7646, "alone ": 7647, "confir": 7648, "to what ": 7649, "are more": 7650, "object ": 7651, " lets ": 7652, "tions we": 7653, " femal": 7654, "chos": 7655, "mportant": 7656, " darija ": 7657, "illing": 7658, "ity or": 7659, "s less": 7660, " friday ": 7661, " oc": 7662, "ongoing ": 7663, "wallah ": 7664, "it sound": 7665, "zes": 7666, "e direct": 7667, " and its": 7668, " spoken ": 7669, "mshi": 7670, "or what ": 7671, "to and": 7672, " month": 7673, "ion put": 7674, "on in ": 7675, "oys": 7676, " ها ha": 7677, "نت anta ": 7678, " thank ": 7679, "emon": 7680, "or hey": 7681, "or it ": 7682, "ماهو ": 7683, "ied ": 7684, "aysa": 7685, "negates ": 7686, "relatabl": 7687, "we get": 7688, " confu": 7689, "outsid": 7690, "icity ": 7691, "fically ": 7692, "demo": 7693, "onstra": 7694, "h this p": 7695, "mons": 7696, "comfor": 7697, "uldnt": 7698, "ngoing": 7699, "al terms": 7700, "الواحد": 7701, "nstr": 7702, "nversati": 7703, "practi": 7704, " carries": 7705, " a name ": 7706, "loys": 7707, "realiz": 7708, " alter": 7709, "and then": 7710, "n both": 7711, "whel": 7712, "نعم na": 7713, "liday ": 7714, "c often ": 7715, " object ": 7716, "ent from": 7717, " bless": 7718, " told me": 7719, "rab": 7720, "negative": 7721, "d some": 7722, "t ver": 7723, " ong": 7724, "make it ": 7725, "challeng": 7726, "point ": 7727, "done": 7728, " filler ": 7729, "o do": 7730, " or an": 7731, "ish 2 ": 7732, "enced by": 7733, "working": 7734, "to do ": 7735, " and it ": 7736, "to him": 7737, "in to ": 7738, "mu": 7739, " same": 7740, "wish": 7741, "a which ": 7742, "ocal": 7743, "anti": 7744, "ish we": 7745, "it is a ": 7746, "singular": 7747, " usu": 7748, "sult": 7749, "es to we": 7750, "ed for e": 7751, " short": 7752, "ypical ": 7753, "watch": 7754, "spoken ": 7755, "unchang": 7756, " walla": 7757, "c or d": 7758, "ns you": 7759, "cous": 7760, "akho": 7761, " or i am": 7762, "d in the": 7763, "imper": 7764, "n order ": 7765, "ation 3 ": 7766, "aila": 7767, "ng or ": 7768, "relative": 7769, "s inclu": 7770, "sleep ": 7771, "i went": 7772, " root ": 7773, " yeah ": 7774, " shnu ": 7775, "ghad": 7776, "hi this ": 7777, "strative": 7778, "d differ": 7779, "ure and ": 7780, "tion 4 ": 7781, "nice": 7782, "written": 7783, " reason ": 7784, "ry compa": 7785, "may have": 7786, "كهو ak": 7787, " tur": 7788, "6 ": 7789, "rhet": 7790, "term is ": 7791, "njo": 7792, "etorical": 7793, "lord": 7794, "قدا ": 7795, "bic": 7796, "bic one ": 7797, " arabi": 7798, " better ": 7799, "sh 2 ": 7800, "tylistic": 7801, "waya ": 7802, "or in or": 7803, "يه e": 7804, "contrast": 7805, "sh we ": 7806, "nuances": 7807, "herent": 7808, "adan": 7809, " got": 7810, "may god ": 7811, " for me ": 7812, "add ": 7813, "ant to": 7814, "هاذاك ": 7815, " lead to": 7816, " quant": 7817, " or at": 7818, "غدوا ": 7819, " enc": 7820, " naam": 7821, "l nature": 7822, "l or": 7823, " coo": 7824, "ed it as": 7825, " hones": 7826, "easy": 7827, "andard": 7828, "touch ": 7829, "n sentim": 7830, " ramad": 7831, "a lot or": 7832, " its a c": 7833, " or no": 7834, "that one": 7835, "athi": 7836, " then ": 7837, "form is ": 7838, " second ": 7839, "ش ash ": 7840, "this or ": 7841, "i ch": 7842, " unt": 7843, "e differ": 7844, " prepa": 7845, "is the f": 7846, "phrasing": 7847, "prefix": 7848, "is typi": 7849, "lici": 7850, "ility ": 7851, "ic one": 7852, " requir": 7853, "speaker ": 7854, "may be": 7855, "has been": 7856, "stood as": 7857, " appear": 7858, " problem": 7859, "ibility": 7860, " i went ": 7861, "yaw": 7862, "هو hu": 7863, " be as": 7864, "sounds": 7865, "ntity ": 7866, "or how": 7867, " nice ": 7868, "all tone": 7869, " ite": 7870, " ليس l": 7871, " sleep": 7872, "it sets ": 7873, " set": 7874, "eful": 7875, "around": 7876, "hering": 7877, " dev": 7878, "sister": 7879, "ly the u": 7880, "abil": 7881, "is repea": 7882, " its not": 7883, " affec": 7884, "it adds": 7885, "ifferent": 7886, "uistic": 7887, " call ": 7888, "nflu": 7889, "erb ": 7890, "fric": 7891, "athe": 7892, " close ": 7893, "is a bit": 7894, "stress": 7895, "hought": 7896, " my son ": 7897, "may": 7898, " a point": 7899, "you dont": 7900, "ش is a": 7901, "friday": 7902, "oura": 7903, "depend": 7904, "فهمتك ": 7905, "native": 7906, " complex": 7907, " نعم na": 7908, "i this": 7909, " nothing": 7910, "rity or ": 7911, "to c": 7912, " it seem": 7913, "is being": 7914, " as well": 7915, "t can be": 7916, "spelling": 7917, "item": 7918, " far": 7919, "sivity": 7920, " bad": 7921, "lay": 7922, " div": 7923, "ji ": 7924, "ntroduc": 7925, " pract": 7926, "ming": 7927, "a person": 7928, " unchang": 7929, " shows ": 7930, "patter": 7931, "wards ": 7932, "ra this ": 7933, "ect this": 7934, "erative ": 7935, "divi": 7936, "ntil": 7937, "lik ": 7938, "or con": 7939, "tivity": 7940, "turally ": 7941, "يه yes": 7942, "for me": 7943, "hing or ": 7944, "hamm": 7945, " through": 7946, "fect": 7947, "before ": 7948, "the tone": 7949, "وا y": 7950, "and less": 7951, "text ": 7952, "brough": 7953, "ybe": 7954, " coffe": 7955, " barsh": 7956, "ani ": 7957, "fully ": 7958, "ayyid": 7959, "suggests": 7960, "type of ": 7961, "tart": 7962, " as yes": 7963, "lack of ": 7964, " want to": 7965, " finish ": 7966, "guous ": 7967, "is the s": 7968, " intent ": 7969, "raw atte": 7970, "al form ": 7971, "nvey": 7972, "we can": 7973, "xim": 7974, "e 2 ": 7975, "carry ": 7976, " im ": 7977, " trick": 7978, " dri": 7979, "or just ": 7980, "honestly": 7981, " use ": 7982, "be as ": 7983, "so this ": 7984, "a lot of": 7985, "nal to": 7986, "tired ": 7987, " what is": 7988, " father ": 7989, "باهي bah": 7990, "alay": 7991, "c for ex": 7992, " pra": 7993, "text the": 7994, "structur": 7995, "sational": 7996, " pay": 7997, "yes yes": 7998, "ndicat": 7999, "onestly ": 8000, "trative ": 8001, "s capt": 8002, " who is ": 8003, "ysa ": 8004, "a name": 8005, "as an ": 8006, "stri": 8007, " each ": 8008, "سافا": 8009, "cultures": 8010, "on and": 8011, "نمشي ": 8012, " ob": 8013, " outside": 8014, "this way": 8015, " yes or ": 8016, "g is": 8017, "sed in": 8018, "he word ": 8019, "ed 3 ": 8020, "can have": 8021, " a pla": 8022, "akhi": 8023, " ambi": 8024, "ns that ": 8025, "awm ": 8026, "matters ": 8027, "jective": 8028, "he first": 8029, "quite di": 8030, "ping": 8031, " 2 capt": 8032, "himt": 8033, "and more": 8034, "gative": 8035, "wait": 8036, " tell me": 8037, "or c": 8038, "sequ": 8039, "cular": 8040, "s where ": 8041, "roga": 8042, " lim": 8043, "n with": 8044, "to or in": 8045, " my lo": 8046, "kal": 8047, " sit": 8048, "essent": 8049, " shwa": 8050, " لم ": 8051, "ها ha": 8052, "month ": 8053, " did not": 8054, "bring ": 8055, "or o": 8056, "سوف ": 8057, "phys": 8058, "or is ": 8059, " i didnt": 8060, " can lea": 8061, "while ac": 8062, "hou ": 8063, "ry can": 8064, "uh ": 8065, "e a poin": 8066, "childre": 8067, "events": 8068, "weather ": 8069, "ect is": 8070, "ommon ": 8071, "ome ": 8072, "is ": 8073, "نعم naam": 8074, "demonstr": 8075, "or com": 8076, "miss": 8077, "omplet": 8078, "to com": 8079, " employs": 8080, "a differ": 8081, " until": 8082, "with her": 8083, " a com": 8084, "choice": 8085, " arabic": 8086, "mind": 8087, "through": 8088, "employs": 8089, "maybe": 8090, "ليس lays": 8091, "come on ": 8092, " did you": 8093, "ing on c": 8094, " theme": 8095, "and that": 8096, "rabbi": 8097, "holiday ": 8098, " ongoing": 8099, "لكي ": 8100, " wee": 8101, "with him": 8102, "taking": 8103, "n them": 8104, " mis": 8105, "icul": 8106, " beaut": 8107, "i chos": 8108, "s 6 ": 8109, "tment": 8110, "ffee": 8111, " hab": 8112, " wont ": 8113, "by using": 8114, "e 4 ": 8115, "broad": 8116, "diffic": 8117, " hundre": 8118, " actions": 8119, "airs": 8120, "think ": 8121, "for her ": 8122, "ewhat": 8123, " written": 8124, " i have ": 8125, "ganiz": 8126, "is con": 8127, "oh my s": 8128, "athering": 8129, "to take ": 8130, "yself ": 8131, " tir": 8132, "s on the": 8133, " ramadan": 8134, "is clear": 8135, "laysa ": 8136, " brought": 8137, "compre": 8138, " stay ": 8139, "ماو ": 8140, " working": 8141, "iness ": 8142, "encour": 8143, " essenti": 8144, " away ": 8145, " and som": 8146, " no long": 8147, "the situ": 8148, " or con": 8149, "es to in": 8150, " ones ": 8151, "is the": 8152, " gathe": 8153, "s with": 8154, "aad": 8155, " 6 ": 8156, " story": 8157, " job ": 8158, "he has": 8159, "physical": 8160, "or for": 8161, "ns or ": 8162, "the day ": 8163, " mys": 8164, "rehens": 8165, "te direc": 8166, "ntextual": 8167, "vities": 8168, " the con": 8169, "way that": 8170, "up": 8171, "ficult": 8172, "i saw ": 8173, "thus": 8174, " haj": 8175, "tention ": 8176, "with me ": 8177, "هي hiya ": 8178, "ion so": 8179, "shar": 8180, "aderie": 8181, "three ": 8182, " shwaya ": 8183, "whelmed ": 8184, "s both": 8185, "ry pron": 8186, "my son": 8187, "trad": 8188, "dual ": 8189, " rhe": 8190, " gods ": 8191, " or be": 8192, "waq": 8193, "ak this ": 8194, " to take": 8195, "the one ": 8196, "quite ": 8197, "current ": 8198, "citement": 8199, "process": 8200, "coff": 8201, "hed ": 8202, "ed on ": 8203, "year ": 8204, "whol": 8205, "ion she ": 8206, "dinner ": 8207, " three": 8208, " hear ": 8209, "happy ": 8210, "informa": 8211, " ab": 8212, " fun": 8213, "rison ": 8214, "lak ": 8215, "water ": 8216, "to con": 8217, " un": 8218, " tru": 8219, "want to ": 8220, " chose ": 8221, "appoin": 8222, "myself ": 8223, "نت you ": 8224, "ly means": 8225, "transi": 8226, "ن aln ": 8227, "until ": 8228, "addition": 8229, " as it": 8230, " ك k": 8231, "or they ": 8232, "on to ": 8233, "ala ": 8234, "n term": 8235, " element": 8236, "at all": 8237, "iated ": 8238, "nking": 8239, " fla": 8240, "yed": 8241, " my lord": 8242, " lab": 8243, "tood as ": 8244, "about a ": 8245, " slang": 8246, "علاه": 8247, " engag": 8248, " the msa": 8249, " wah": 8250, " bik": 8251, " i aim": 8252, " light": 8253, "out": 8254, "al or ": 8255, "corr": 8256, "e comp": 8257, "shu": 8258, " moment ": 8259, "wedd": 8260, "ure lets": 8261, "li this ": 8262, " want ": 8263, " wed": 8264, "e what": 8265, "story ": 8266, "ertainty": 8267, "nded": 8268, " earlier": 8269, "cele": 8270, "or right": 8271, " gha": 8272, "at hom": 8273, " happy ": 8274, " last ": 8275, " awa": 8276, "a strong": 8277, "t phrase": 8278, " device ": 8279, " or good": 8280, "e word": 8281, "kind": 8282, "wouldnt": 8283, "ppe": 8284, "ual and ": 8285, " he is": 8286, "nefi": 8287, "tness": 8288, "raj": 8289, " enjo": 8290, "number ": 8291, " should ": 8292, "somewhat": 8293, " the lis": 8294, "ance or ": 8295, "else ": 8296, "you and ": 8297, "روحت": 8298, "youn": 8299, "t 2 ": 8300, "elves ": 8301, " though ": 8302, "implies ": 8303, "on often": 8304, " or situ": 8305, "point": 8306, "s full t": 8307, "كان kan": 8308, "lebr": 8309, "oh my d": 8310, "ion oh ": 8311, "s atte": 8312, "elements": 8313, "imed to ": 8314, "iq": 8315, " rou": 8316, "it this ": 8317, "ion we": 8318, " dinner ": 8319, " intensi": 8320, " number ": 8321, "egre": 8322, "pini": 8323, "trick": 8324, " watch": 8325, "huh ": 8326, "ented ": 8327, " long ": 8328, "flects a": 8329, "slang": 8330, "is quite": 8331, "rself ": 8332, " but in ": 8333, "nforma": 8334, "kam": 8335, "nday": 8336, " known": 8337, " dro": 8338, " re": 8339, " or so": 8340, "pronouns": 8341, "to me ": 8342, "fahimt": 8343, "in it ": 8344, "ns with ": 8345, "a situ": 8346, " but its": 8347, "asser": 8348, "use of ": 8349, " normal ": 8350, "ambi": 8351, " before ": 8352, "e text ": 8353, " down ": 8354, "ary in": 8355, "zing ": 8356, "rest": 8357, "e a stat": 8358, " lack of": 8359, "بيها ": 8360, "dul": 8361, "ion yes": 8362, "s on": 8363, "eme in": 8364, "arri": 8365, " she is ": 8366, "or oh ": 8367, "ation 4 ": 8368, "what did": 8369, " issue": 8370, "ainly": 8371, "s feel": 8372, "due to ": 8373, "har ": 8374, "bda": 8375, "rogative": 8376, "rrative ": 8377, " the one": 8378, " old": 8379, "hysi": 8380, "bad ": 8381, "min": 8382, "educ": 8383, "access": 8384, "sawfa": 8385, "b atte": 8386, "ffix ك": 8387, "ما am": 8388, "she said": 8389, "ting how": 8390, "s contex": 8391, "es you": 8392, "sitting ": 8393, "husias": 8394, "كثير ": 8395, "ك is a": 8396, "allo": 8397, "nal and ": 8398, "ه can be": 8399, "result": 8400, "hki": 8401, "ts or ": 8402, "ed me ": 8403, " explici": 8404, "unt ": 8405, " yours": 8406, " hot": 8407, "told her": 8408, "yas": 8409, " i cho": 8410, "ogue": 8411, "certai": 8412, "empt": 8413, "ry or ": 8414, "ddress": 8415, "ppose": 8416, "es compa": 8417, " or as": 8418, "apprec": 8419, "سوف sa": 8420, "oking": 8421, " qad": 8422, "mation ": 8423, "ccess": 8424, "ib": 8425, "vid": 8426, " i under": 8427, "ke up ": 8428, " here it": 8429, "mmar": 8430, "هاك ": 8431, "bic this": 8432, " expec": 8433, " eas": 8434, "ither ": 8435, "in a way": 8436, "upon ": 8437, "l of ": 8438, "eek ": 8439, "suc": 8440, "mality": 8441, "indivi": 8442, " kin": 8443, "belong": 8444, "iya ": 8445, " to use ": 8446, "n but ": 8447, "t 3 ": 8448, "هاني ha": 8449, "ib ": 8450, " around": 8451, "blessi": 8452, "t that": 8453, "يا ya ": 8454, " بش besh": 8455, "area": 8456, " make ": 8457, "ic this ": 8458, "heat": 8459, "n compar": 8460, "ache": 8461, "ability ": 8462, "requir": 8463, "nha": 8464, " wish ": 8465, "و and ": 8466, "nothing ": 8467, "2 capt": 8468, "انشالله ": 8469, "courag": 8470, "yat": 8471, " family ": 8472, " also be": 8473, "l form": 8474, "mem": 8475, "selves ": 8476, "family": 8477, "number": 8478, " kid": 8479, "effect": 8480, "ij": 8481, "ast tens": 8482, "dialo": 8483, " alone": 8484, "i am not": 8485, " evening": 8486, "here or ": 8487, "ocia": 8488, "temp": 8489, "wrong": 8490, "hind t": 8491, "kum ": 8492, "i want": 8493, "provide": 8494, "urance": 8495, " entir": 8496, "i was ": 8497, " assoc": 8498, "tion 5 ": 8499, "enough": 8500, "warmth": 8501, "lavo": 8502, "stre": 8503, "ential": 8504, "res and ": 8505, "n mode": 8506, "qil": 8507, "seve": 8508, "qult": 8509, "alha": 8510, "like or ": 8511, "e 5 ": 8512, "to ask ": 8513, "than msa": 8514, " la ": 8515, "fy or e": 8516, " cor": 8517, " study": 8518, "ing how ": 8519, "topic ": 8520, "thetic": 8521, "opin": 8522, "e contex": 8523, "at night": 8524, " took ": 8525, "ya": 8526, "بالقدا ": 8527, "dhah": 8528, " diffi": 8529, "uth": 8530, "ebr": 8531, "bara": 8532, "mix of ": 8533, " the w": 8534, "or so ": 8535, "note": 8536, " opi": 8537, "dness": 8538, "ities ": 8539, "any": 8540, " reass": 8541, "ose ": 8542, " inquir": 8543, " mish ": 8544, "piec": 8545, "ted with": 8546, " talking": 8547, "yet": 8548, " nor": 8549, "ad this ": 8550, "ts the c": 8551, " gramm": 8552, "lost": 8553, "ty and ": 8554, "to mean ": 8555, "cessibl": 8556, "intend": 8557, "face": 8558, " for her": 8559, " or dis": 8560, "it has": 8561, "ic where": 8562, "يوا ": 8563, " case it": 8564, "and we": 8565, "d it as ": 8566, "dle": 8567, "i said": 8568, " or ex": 8569, "religi": 8570, "and they": 8571, "in front": 8572, "ution ": 8573, "societ": 8574, " fig": 8575, "ains": 8576, "except": 8577, "course ": 8578, "fig": 8579, " those ": 8580, "even if ": 8581, "woman ": 8582, "se who ": 8583, "scene": 8584, " socie": 8585, "ces made": 8586, "باش bash": 8587, " 5 و ": 8588, "lika ": 8589, " and ال": 8590, "says": 8591, "deep": 8592, " foo": 8593, " eyes": 8594, " off": 8595, " relig": 8596, "wome": 8597, "support": 8598, "tafa": 8599, " heart": 8600, "value": 8601, "udience": 8602, "men ": 8603, "nami": 8604, " head ": 8605, " an": 8606, "blo": 8607, "sca": 8608, "dden": 8609, "offi": 8610, "a and ": 8611, "despi": 8612, "cums": 8613, "mboliz": 8614, "fraid ": 8615, "fice": 8616, "iety": 8617, "ath ": 8618, "imager": 8619, "spir": 8620, " childre": 8621, " hum": 8622, "ion a ": 8623, "agai": 8624, "msta": 8625, "it and ": 8626, "tances": 8627, " hand ": 8628, "ships ": 8629, "isla": 8630, "ali ": 8631, "marri": 8632, "tion a ": 8633, "slam": 8634, " image": 8635, "at that ": 8636, " think ": 8637, " country": 8638, "big ": 8639, "ed the": 8640, "volut": 8641, "barr": 8642, "reso": 8643, "oor ": 8644, "dom ": 8645, "wsp": 8646, "spap": 8647, "f means ": 8648, "stop": 8649, "prote": 8650, "mr ": 8651, "room": 8652, "y referr": 8653, "sport": 8654, " offi": 8655, " opini": 8656, "hims": 8657, "criti": 8658, "nor ": 8659, " or need": 8660, "foot": 8661, "and ال": 8662, "is part ": 8663, "cape": 8664, "gover": 8665, " myself ": 8666, "difficul": 8667, "ن means ": 8668, "mself ": 8669, "es this ": 8670, "law ": 8671, "living": 8672, " fai": 8673, "s her ": 8674, "mbl": 8675, "ried": 8676, "ished ": 8677, "vent": 8678, " la": 8679, " rol": 8680, "cir": 8681, " clu": 8682, " years": 8683, "raef": 8684, "na means": 8685, "he was": 8686, "looking": 8687, "autho": 8688, "it was": 8689, "uggl": 8690, " creat": 8691, "ughing": 8692, "great": 8693, "on this ": 8694, "started ": 8695, " hit": 8696, "igious": 8697, "nks ": 8698, "tion it ": 8699, " har": 8700, "raz": 8701, "but and ": 8702, "dina": 8703, "gious ": 8704, " alma": 8705, "hiev": 8706, "laug": 8707, "ion باش ": 8708, "continue": 8709, "dance ": 8710, " the wor": 8711, "mic ": 8712, "he said ": 8713, " ra": 8714, "freedo": 8715, "lying ": 8716, "lub ": 8717, "rden": 8718, "young ": 8719, "ceiv": 8720, " blo": 8721, "as if ": 8722, "alma": 8723, "mali": 8724, "sh means": 8725, " support": 8726, "the do": 8727, "youth ": 8728, " reach": 8729, "tion we": 8730, "otball": 8731, " وعشرين ": 8732, "انتخاب": 8733, "هذايا ": 8734, "تقريبا": 8735, "قانون ": 8736, "توانس": 8737, " الحكوم": 8738, "قانون ال": 8739, "الدول": 8740, " وخمسين ": 8741, "شنوا ": 8742, "ايضا": 8743, " السيد": 8744, "جتماعي": 8745, "عمومي": 8746, "ميزاني": 8747, "وعشر": 8748, " القضا": 8749, "طاش ": 8750, "دود ": 8751, " الداخ": 8752, "رلمان": 8753, " المالي": 8754, "برلمان": 8755, "قادر": 8756, "طن ": 8757, " مجلس": 8758, " هذيا ": 8759, " العمومي": 8760, "قاعدين ": 8761, "وقرا": 8762, " البر": 8763, "اورو": 8764, "صارت ": 8765, "مشروع ": 8766, "تفاق": 8767, "التونسي": 8768, "سسات ال": 8769, " وزار": 8770, "راجعين ": 8771, "قتصادي": 8772, "سياسي": 8773, " سبع": 8774, "راطي": 8775, "ومن ": 8776, "الشعب": 8777, " نسب": 8778, " كذلك": 8779, "قطاع ا": 8780, "رص": 8781, " اذا": 8782, "حقوق": 8783, " المحا": 8784, "المركز": 8785, "سرا": 8786, "وضع ": 8787, " شكرا ": 8788, "قراطي": 8789, "مليار": 8790, "هذيا ": 8791, "واقع ": 8792, "خلينا ": 8793, "تفضل ": 8794, "فاصل": 8795, "حر": 8796, "نقولو ": 8797, "صندوق": 8798, "قطاع": 8799, "wspap": 8800, "الحقيق": 8801, "كونو": 8802, "نتخابات ": 8803, "نحكيو عل": 8804, "استث": 8805, "الذي": 8806, "داري": 8807, " اربع": 8808, " المجلس": 8809, "ناخ": 8810, "لو كان ": 8811, "عقل": 8812, "و من ": 8813, "يمقراط": 8814, " البلاد ": 8815, "agains": 8816, "منا ": 8817, "شريع": 8818, "فح": 8819, " حسا": 8820, "وانين ": 8821, "حكيو عل": 8822, "حساب": 8823, "فرنسا": 8824, " كامل": 8825, "شروع": 8826, " علاق": 8827, " اقتصا": 8828, "نك المر": 8829, "بنك ال": 8830, "عمل": 8831, "منذ": 8832, "اخلي": 8833, "دون ": 8834, "قواني": 8835, " النقد": 8836, " و ال": 8837, "في كل ": 8838, " تقريبا ": 8839, "سبع": 8840, "مركزي": 8841, "عندنا ": 8842, "في علاق": 8843, " ايضا": 8844, " اكثر ": 8845, "اتهم ": 8846, " قادر": 8847, " ربما ": 8848, "ابات ": 8849, "دستور": 8850, "لجن": 8851, "بنوك ": 8852, " البنك ": 8853, " وفي ": 8854, " تفضل ": 8855, " الفلسطي": 8856, "من غير": 8857, " الديم": 8858, "ين بال": 8859, "محكم": 8860, "pul": 8861, "نفيذي": 8862, "اتفا": 8863, " النواب ": 8864, "لول ": 8865, "وهذا": 8866, "قرار ": 8867, " الفلا": 8868, "بالمي": 8869, "اتحاد ال": 8870, " سنوات ": 8871, " big": 8872, "سوم ": 8873, "himself ": 8874, "eur": 8875, " نقولو ": 8876, "ظل ": 8877, "شرين ": 8878, "ظلم": 8879, " اا ": 8880, "ارج ": 8881, " موضوع": 8882, " وعل": 8883, "graph": 8884, "شهر": 8885, " art": 8886, "اصل": 8887, " سعيد ": 8888, " اكثر من": 8889, "الفين و": 8890, "خطاب": 8891, "امام": 8892, " ست": 8893, " يصير": 8894, "ين جو": 8895, "وقف ": 8896, "تثمار": 8897, "rupt": 8898, "شوفو ": 8899, "ديمقراط": 8900, " اثنين ": 8901, "تصري": 8902, "منها ": 8903, "ماهوش ": 8904, "العالم": 8905, "مقابل": 8906, "تحدث": 8907, "years": 8908, " التنفي": 8909, "تشري": 8910, " يعرف": 8911, "اكثر من ": 8912, "قام ": 8913, "cipa": 8914, "تذ": 8915, " محمد ": 8916, "حاسب": 8917, "الوقت ": 8918, " vis": 8919, "ازم": 8920, " بصف": 8921, " النظام": 8922, " cal": 8923, " من عند": 8924, " التوانس": 8925, "جمهوري": 8926, "هوني ": 8927, "لسطيني": 8928, "نحبو": 8929, " شنوا ": 8930, "وزير ا": 8931, " وثلاث": 8932, " روحو ": 8933, " mer": 8934, "تتع": 8935, "لي عند": 8936, "يقول لك ": 8937, "nan ": 8938, " نلقاو": 8939, "ion ال": 8940, "يي": 8941, "ts and": 8942, "طاع ال": 8943, "ولات ": 8944, "هري": 8945, " قداش ": 8946, "اوي ": 8947, "s me": 8948, "duces a": 8949, "جويلي": 8950, "دق ": 8951, "الحق ": 8952, " hands": 8953, "وحيد": 8954, "ماهيش ": 8955, " criti": 8956, "السلط": 8957, " القرار": 8958, "وط ": 8959, "هض": 8960, "لمي": 8961, "ريح ": 8962, "deci": 8963, " حكوم": 8964, "hysical ": 8965, "ناحي": 8966, "فظ": 8967, "who are ": 8968, "تظ": 8969, "ندوق الن": 8970, " ليك": 8971, "فلسط": 8972, "سيد ": 8973, "اتجا": 8974, "cover": 8975, "طبعا": 8976, "وط": 8977, " ماهيش ": 8978, "اتو ": 8979, "استق": 8980, " حدو": 8981, "sembl": 8982, "سات ": 8983, " الصح": 8984, "fall": 8985, "ism ": 8986, "ترام": 8987, "جتمع ال": 8988, "omic": 8989, "ory ": 8990, "اجرا": 8991, "urna": 8992, "hind": 8993, "نتخابي": 8994, "ثلاثين ": 8995, "ضخ": 8996, " منهم ": 8997, " تونسي": 8998, "title ": 8999, "ember ": 9000, "smi": 9001, "نلقاو": 9002, "فالم": 9003, "girls": 9004, "جنبي": 9005, " love ": 9006, " islam": 9007, "in his": 9008, "بصف": 9009, "صيد": 9010, "زل ": 9011, " عندنا ": 9012, "وسا": 9013, " dea": 9014, " القطا": 9015, "بالضبط ": 9016, "اقي": 9017, "بطبيع": 9018, "مرا ": 9019, "باقي": 9020, "colo": 9021, "jud": 9022, "قاب": 9023, " وسبع": 9024, "د means ": 9025, "عو": 9026, "mage": 9027, " run": 9028, " ميزا": 9029, "نرجع": 9030, "ك المرك": 9031, " فم": 9032, "نا عل": 9033, " individ": 9034, "cism ": 9035, "the tr": 9036, " except": 9037, " كلام ": 9038, " غز": 9039, "منظوم": 9040, "باش يت": 9041, "fortu": 9042, " remem": 9043, "ها ال": 9044, " الاف ": 9045, "السياسي": 9046, "منهم ": 9047, "هاذوما ": 9048, "مليك": 9049, "لما ": 9050, "coffee": 9051, "الان": 9052, "هني": 9053, " البنو": 9054, "دخ": 9055, "ساعات ": 9056, "ux": 9057, "rais": 9058, "هجر": 9059, "وار ": 9060, "tima": 9061, "يصير ": 9062, "يموق": 9063, "teache": 9064, " a metap": 9065, " و الت": 9066, "arch": 9067, "عكس ": 9068, "شكرا ل": 9069, "جتمع ": 9070, "off ": 9071, "باش يكون": 9072, "and she ": 9073, "strugg": 9074, " الجزا": 9075, " متاعو ": 9076, "football": 9077, "و حت": 9078, "ي العام ": 9079, "ing this": 9080, "ما عادش ": 9081, " 11 ": 9082, "death ": 9083, "حجم": 9084, "es are": 9085, "نقاش": 9086, "national": 9087, "مويل ": 9088, " process": 9089, "wledge": 9090, "بيا ": 9091, "ستثما": 9092, "remem": 9093, "6 و ": 9094, " النقا": 9095, " بطبيع": 9096, "سياسي ": 9097, "رشح ": 9098, "القانون ": 9099, "مشهد": 9100, "نوك ": 9101, " الوحي": 9102, "جريد": 9103, "jour": 9104, "ورو ": 9105, " he said": 9106, " i was": 9107, "طروح": 9108, "y are ": 9109, " بيه ": 9110, "شد ": 9111, "ربما ": 9112, "يوصل": 9113, " الكلام ": 9114, " الهي": 9115, "movement": 9116, "ence to ": 9117, "قيس ": 9118, "truth ": 9119, "عملنا ": 9120, " الدستور": 9121, "لان ": 9122, "الصغير": 9123, " المجتم": 9124, "الحكاي": 9125, "namic": 9126, "celebr": 9127, "zz": 9128, "tful ": 9129, "cording ": 9130, "هذا ال": 9131, " تاع": 9132, "udge": 9133, "for him ": 9134, "ating ": 9135, "arti": 9136, " الفكر": 9137, "as they ": 9138, "سعار ": 9139, "a refers": 9140, "رم ": 9141, "حرا": 9142, "دان ": 9143, "hips ": 9144, "mell": 9145, " ظ": 9146, "وظيف": 9147, "البلاد ": 9148, "ance of ": 9149, "تعد": 9150, "the ca": 9151, "ادار": 9152, "ا كان ": 9153, "ffor": 9154, "الحكوم": 9155, "ثم": 9156, " sel": 9157, "ادر ": 9158, " play": 9159, " become ": 9160, "yment": 9161, "who": 9162, "observ": 9163, "piri": 9164, "adna": 9165, "oever": 9166, " لتونس": 9167, "fear": 9168, " of them": 9169, "قضايا ": 9170, " المستو": 9171, " knowled": 9172, " bo": 9173, "كلف": 9174, "الاح": 9175, "سسات ": 9176, "ion when": 9177, " سام": 9178, "effor": 9179, "s about ": 9180, "wife": 9181, "نمي": 9182, "حاكم": 9183, "ات من ": 9184, "وعل": 9185, "لخر ": 9186, "هوي": 9187, " ثماني": 9188, "شني": 9189, "ساسا": 9190, " مشروع ": 9191, "روحو ": 9192, "row": 9193, "team": 9194, "aper": 9195, "row ": 9196, "كل ال": 9197, "يس س": 9198, "rese": 9199, "never": 9200, " البلد": 9201, "نقاب": 9202, "عايش": 9203, "قترح": 9204, " jour": 9205, " قيس": 9206, "gri": 9207, "cs ": 9208, "شارع ": 9209, "تعامل ": 9210, "نعملو ": 9211, "ion if": 9212, "عبد ال": 9213, "و ب": 9214, "kill": 9215, "شباب ": 9216, " ثاني": 9217, "this ap": 9218, " شعب": 9219, " نواب ": 9220, " wrong": 9221, "كتل": 9222, "وفي ": 9223, " will be": 9224, "بالطبيع": 9225, "مليح ": 9226, "هاجر": 9227, "صاد": 9228, "افريق": 9229, "tion ال": 9230, " الفلوس ": 9231, " number": 9232, "hundred ": 9233, "ep 1 tra": 9234, "روميا": 9235, "تران ": 9236, "thousa": 9237, "univers": 9238, "لاهي ": 9239, "وقتاش ": 9240, "لاي ": 9241, "ed term ": 9242, "ميار ": 9243, "fift": 9244, "تور ": 9245, "ousand": 9246, "سلام": 9247, "card": 9248, "clas": 9249, "iter": 9250, "تفض": 9251, " lo": 9252, "peace ": 9253, " و نصف ": 9254, " five ": 9255, " train": 9256, "رتو": 9257, "quar": 9258, "youd": 9259, " pea": 9260, "ud like ": 9261, " or some": 9262, "versally": 9263, "d like": 9264, "leav": 9265, " city ": 9266, "the name": 9267, "connect": 9268, "eace": 9269, " hours": 9270, "assa": 9271, "invi": 9272, "e be": 9273, "litera": 9274, "arter ": 9275, " dinar": 9276, "thir": 9277, " youd ": 9278, "عطيني ": 9279, "easi": 9280, "sala": 9281, "wel": 9282, "عليكم ": 9283, " class": 9284, " hello": 9285, "ي ay": 9286, "prefer": 9287, "quanti": 9288, "slit": 9289, "alian ": 9290, "ges ": 9291, "six": 9292, "سلام ": 9293, "ists": 9294, "gical ": 9295, "evel": 9296, "خمسين ": 9297, "erm from": 9298, "be upo": 9299, "an hou": 9300, " mix": 9301, "and ital": 9302, " mata": 9303, "closely ": 9304, " case ": 9305, "quality ": 9306, "borrowed": 9307, "kar": 9308, "ailable ": 9309, "and a ": 9310, "lation": 9311, " history": 9312, "transl": 9313, "encourag": 9314, "d for ": 9315, "باللا": 9316, "here to ": 9317, "concept": 9318, "ms to be": 9319, "guity": 9320, "the time": 9321, "dialogue": 9322, " small": 9323, "ime ": 9324, "parent": 9325, " than a ": 9326, "one and ": 9327, "piness": 9328, " invit": 9329, "d is ": 9330, " ahead": 9331, " mia": 9332, "limi": 9333, "resembl": 9334, "afric": 9335, "eleven": 9336, "hair": 9337, "writing": 9338, "hath": 9339, "ourage": 9340, " topic ": 9341, "urgui": 9342, " quality": 9343, "twen": 9344, "rain": 9345, "ost ": 9346, "ncludes ": 9347, "hree": 9348, "d is s": 9349, "guiba": 9350, "elebr": 9351, "a half ": 9352, "reason": 9353, "nari": 9354, "duals": 9355, " means p": 9356, "esir": 9357, "sous": 9358, "السلام ": 9359, " like a ": 9360, "rele": 9361, "ily ": 9362, "identity": 9363, "ing in a": 9364, " left ": 9365, "eig": 9366, "whoever": 9367, "ally in ": 9368, "liness": 9369, "ing for ": 9370, " concept": 9371, "كشي": 9372, " may be ": 9373, "girl ": 9374, " def": 9375, "confus": 9376, "tains it": 9377, " four ": 9378, "usse ": 9379, " perhap": 9380, "tball": 9381, "s while ": 9382, "ي can be": 9383, "broader": 9384, "enty": 9385, "who is ": 9386, "ago ": 9387, " knows ": 9388, " a term ": 9389, "itation ": 9390, "tation ": 9391, "hda": 9392, "لفين ": 9393, " arab ": 9394, "enot": 9395, "mer": 9396, " hour ": 9397, " idea ": 9398, "hard": 9399, " you can": 9400, "felt": 9401, "go a": 9402, "ners": 9403, " encoura": 9404, " setting": 9405, "modern": 9406, "pothetic": 9407, "individ": 9408, "la means": 9409, "that you": 9410, "to help ": 9411, "the casu": 9412, " souss": 9413, "large": 9414, "ed 2 ": 9415, " passed ": 9416, " hai": 9417, "found ": 9418, " for a": 9419, " kan": 9420, "evening ": 9421, "s this i": 9422, " effec": 9423, " society": 9424, "lev": 9425, "ended ": 9426, "of this ": 9427, "ague": 9428, "let me": 9429, "quick": 9430, "alig": 9431, "getting ": 9432, " mos": 9433, "ted feel": 9434, "tion so": 9435, "لام عليك": 9436, " den": 9437, "the be": 9438, "crease ": 9439, " wis": 9440, " det": 9441, " women": 9442, "the de": 9443, " half ": 9444, "re are": 9445, " among": 9446, " foot": 9447, "ceed": 9448, "dear": 9449, "cle ": 9450, "it down ": 9451, "al this ": 9452, "with it ": 9453, "comes ": 9454, "playful ": 9455, "jam": 9456, " ide": 9457, " educ": 9458, "ion what": 9459, " prote": 9460, "diomatic": 9461, "يوجد ": 9462, "names ": 9463, "nced by ": 9464, " the int": 9465, "نورمال ": 9466, " too ": 9467, "cost": 9468, "ologi": 9469, "habi": 9470, " mind ": 9471, " let me ": 9472, "illa": 9473, "spective": 9474, "af": 9475, "re and ": 9476, "lcome": 9477, "drink ": 9478, "iate": 9479, "nd may": 9480, "such ": 9481, " polit": 9482, "the ex": 9483, "ouz": 9484, "s may ": 9485, " give me": 9486, "mani": 9487, " young": 9488, "a conj": 9489, "icture": 9490, " the tim": 9491, "ched": 9492, "stom": 9493, "worth": 9494, " lev": 9495, "بقد": 9496, "logue": 9497, "liev": 9498, " cut": 9499, "casing": 9500, "e but ": 9501, "oks ": 9502, "pective ": 9503, " univers": 9504, "means my": 9505, "air ": 9506, "gent": 9507, " mee": 9508, "you can ": 9509, "perspect": 9510, "قطار": 9511, "hamed ": 9512, " allow": 9513, "tion as": 9514, " life ": 9515, "rth ": 9516, "casion": 9517, "tice": 9518, " names": 9519, "عسلا": 9520, "lq": 9521, "pping": 9522, "full": 9523, "towards ": 9524, "ing in": 9525, "ion in a": 9526, "crucial": 9527, "named ": 9528, "denote": 9529, "s local ": 9530, " matter": 9531, "gave": 9532, "service ": 9533, "behavi": 9534, "ced ": 9535, "will be ": 9536, "ology ": 9537, " age": 9538, "een ": 9539, "ower": 9540, "hosp": 9541, "one who ": 9542, " may god": 9543, " demon": 9544, "ket ": 9545, "prem": 9546, " it and ": 9547, "nate": 9548, " wif": 9549, " mercy ": 9550, " the way": 9551, "he will ": 9552, "havior": 9553, "t from": 9554, "r the ": 9555, "compan": 9556, "shop": 9557, "cking ": 9558, "brought ": 9559, "order ": 9560, " show ": 9561, "heav": 9562, "role": 9563, "thought ": 9564, " imagin": 9565, " never": 9566, "camar": 9567, "thetical": 9568, "regional": 9569, "iha": 9570, "talking ": 9571, "you see ": 9572, " و خمس": 9573, "t 4 ": 9574, "bjects": 9575, "waiting ": 9576, "sub": 9577, "er this ": 9578, " beli": 9579, "post": 9580, " amount ": 9581, "free to ": 9582, "means he": 9583, " a local": 9584, "s be": 9585, "organiz": 9586, "urative ": 9587, " lil": 9588, "forword": 9589, " spa": 9590, "is this ": 9591, "nine": 9592, " by the ": 9593, "minut": 9594, "ed feel ": 9595, "atta": 9596, " struggl": 9597, " evide": 9598, "rror": 9599, "ration ": 9600, "setting ": 9601, "no one": 9602, "into": 9603, "te of ": 9604, "ting to ": 9605, "bed ": 9606, "d as": 9607, "rcy ": 9608, "eel free": 9609, "on you": 9610, "mist": 9611, "light ": 9612, "or or ": 9613, "trou": 9614, "tress ": 9615, "mplete": 9616, "and has ": 9617, "ed terms": 9618, " feels": 9619, "s this p": 9620, " accept": 9621, " effor": 9622, "uck ": 9623, "comparis": 9624, "aos": 9625, "with a": 9626, "racy ": 9627, "i is a": 9628, "means if": 9629, " hos": 9630, "ed up ": 9631, "believ": 9632, " found": 9633, "table ": 9634, "or ex": 9635, "is wide": 9636, "that he ": 9637, "matter": 9638, " comfor": 9639, "s this ": 9640, "when you": 9641, "articl": 9642, "lock ": 9643, "safe": 9644, " parts": 9645, " great": 9646, " a des": 9647, "pre": 9648, "ct incor": 9649, " relev": 9650, "agement ": 9651, " and we": 9652, "price ": 9653, " service": 9654, "marke": 9655, " eleve": 9656, "e full t": 9657, "defini": 9658, " mta": 9659, "benefi": 9660, "ial term": 9661, " del": 9662, "ed for": 9663, "ed full ": 9664, " bri": 9665, "ing to a": 9666, "accoun": 9667, "ion in": 9668, "van": 9669, "once": 9670, "far ": 9671, "se and ": 9672, " em": 9673, "undert": 9674, "ithn": 9675, "ect 2 ": 9676, "or relat": 9677, "afa": 9678, "pital ": 9679, "kids": 9680, "ense ": 9681, "ms and ": 9682, "wers": 9683, "و wa": 9684, "lift": 9685, "voke": 9686, "figure ": 9687, " or they": 9688, " perspec": 9689, " sport": 9690, " bra": 9691, " else ": 9692, "haract": 9693, "vita": 9694, "vant ": 9695, "rically ": 9696, " water": 9697, "d usage ": 9698, "lack": 9699, "rying ": 9700, " steps ": 9701, " items": 9702, "exis": 9703, "sch": 9704, "entary": 9705, " exis": 9706, " figure ": 9707, "set ": 9708, "mething ": 9709, " me and ": 9710, "rganiz": 9711, " pride": 9712, "ing with": 9713, "wishing ": 9714, "path": 9715, "rio ": 9716, " bir": 9717, "mmer": 9718, "fool": 9719, "ts this ": 9720, "the two": 9721, "لي illi": 9722, "islamic ": 9723, "spital": 9724, "e of to ": 9725, "true": 9726, " pic": 9727, " against": 9728, "hall": 9729, "looks ": 9730, " bla": 9731, "actly ": 9732, "قاللك ": 9733, "flexibl": 9734, "cold": 9735, "i know ": 9736, " grammar": 9737, "ial form": 9738, "econd": 9739, "ect is ": 9740, "nything ": 9741, "sculine": 9742, " mdh": 9743, "tant in ": 9744, "huna": 9745, "activity": 9746, "ns to ": 9747, "sday ": 9748, "e convey": 9749, "bic but ": 9750, " shay ": 9751, " hatta": 9752, " 1 ": 9753, " madha": 9754, "كاهو ": 9755, "second": 9756, " flavo": 9757, "تجي ": 9758, "خذيت": 9759, "تي ti": 9760, "bic that": 9761, "to captu": 9762, "is less": 9763, "هوكا": 9764, "and ever": 9765, "ement 2 ": 9766, "or in ": 9767, "b conjug": 9768, "ed 4 ": 9769, "to see": 9770, "ical rul": 9771, "nce the ": 9772, "كثير k": 9773, "ame way ": 9774, "صحيت": 9775, "مش mish ": 9776, "yawm ": 9777, "athir ": 9778, "s why ": 9779, " it as": 9780, "كيفاه ": 9781, "haus": 9782, "kol": 9783, " yet": 9784, "curi": 9785, "divine": 9786, "kathi": 9787, "1 والله ": 9788, "اديكا": 9789, "or yes": 9790, "توا ta": 9791, "intens": 9792, "already ": 9793, "next to ": 9794, "كي k": 9795, " buy ": 9796, "flav": 9797, "i kept": 9798, "iple ": 9799, " key": 9800, " cook ": 9801, "ذاكا": 9802, "dish ": 9803, "mascu": 9804, "val or ": 9805, "حاسي": 9806, "husiasm ": 9807, " version": 9808, "ما for ": 9809, "or here ": 9810, "ما هو ": 9811, "an inter": 9812, "evident ": 9813, "hdi": 9814, " say ": 9815, "هاذيكا": 9816, "igid": 9817, " i kep": 9818, " prefix": 9819, "rios": 9820, " rig": 9821, " the end": 9822, "s msa ": 9823, "or whats": 9824, "qol": 9825, " shorten": 9826, " a quest": 9827, "mult": 9828, " or its ": 9829, "al usage": 9830, "urgency ": 9831, "early": 9832, " حاصيلو ": 9833, "allah ": 9834, "or about": 9835, "dperson": 9836, "l compar": 9837, "ظهرلي ": 9838, "turd": 9839, "s in msa": 9840, "eck ": 9841, "clam": 9842, "rday": 9843, "وكهو ": 9844, "سيلو ": 9845, "oh my": 9846, "h is a c": 9847, "explic": 9848, " ما is a": 9849, "and some": 9850, "n can ": 9851, "n this ": 9852, "نمشيوا ": 9853, " divine ": 9854, "or alter": 9855, "bic or t": 9856, "emphatic": 9857, " for yes": 9858, " to hey ": 9859, "prepar": 9860, "ماك ": 9861, "t how ": 9862, "sweet": 9863, "or good ": 9864, "athy ": 9865, "having": 9866, "مازلت": 9867, "t can ": 9868, "hing 2 ": 9869, "modi": 9870, "s used": 9871, "haalla": 9872, "nt pron": 9873, "cooking": 9874, "or tha": 9875, "but it": 9876, "taq": 9877, " insha": 9878, " for him": 9879, " to them": 9880, "you all ": 9881, "e often ": 9882, " has its": 9883, " with me": 9884, " of ما ": 9885, " نا ": 9886, "جيد ": 9887, "or god": 9888, "اوا ": 9889, "tion 1 ": 9890, " kay": 9891, "told him": 9892, "ze a ": 9893, " metho": 9894, "imagine ": 9895, "نعملوا ": 9896, " verb to": 9897, " fat": 9898, " kept it": 9899, " anymore": 9900, "rabic": 9901, " i saw": 9902, "ent pron": 9903, "لا no": 9904, "proval": 9905, "نتم ": 9906, " happen ": 9907, "lexibl": 9908, "send": 9909, "ayfa": 9910, " tone 2 ": 9911, "chec": 9912, "too ": 9913, "apture t": 9914, " it adds": 9915, "ioning": 9916, "eather": 9917, "ذيكا": 9918, "whereas ": 9919, "with and": 9920, "start ": 9921, " to god ": 9922, " or hey ": 9923, "admira": 9924, "of ما ": 9925, "7 ": 9926, "asting": 9927, "dhahab": 9928, " near": 9929, "lect ": 9930, "that it ": 9931, "eeping": 9932, "ولا لا ": 9933, "t but ": 9934, "the stat": 9935, "ent of ": 9936, "or look ": 9937, " add ": 9938, " appro": 9939, "نروح": 9940, "ukh": 9941, "qou": 9942, "جولي": 9943, "ليفون ": 9944, "twenty": 9945, "مسكين": 9946, " wouldnt": 9947, " hope or": 9948, "or sta": 9949, " khi": 9950, "e while ": 9951, "cook ": 9952, " tricky ": 9953, "case it ": 9954, "you go": 9955, "s char": 9956, " at all ": 9957, "وكل شي": 9958, "s 7": 9959, " omi": 9960, "commonly": 9961, "or my ": 9962, " labas": 9963, " dai": 9964, " its a": 9965, "akin to ": 9966, "lect to ": 9967, "ion 3 ": 9968, "وا na": 9969, " we can ": 9970, "or any": 9971, " fluid": 9972, "re the s": 9973, "hasilo": 9974, "the pres": 9975, "filler": 9976, "ronoun": 9977, "ion 2 ": 9978, " rules": 9979, "nak ": 9980, "hak ": 9981, " indeed ": 9982, " a pre": 9983, " maybe": 9984, " to us": 9985, "ish it": 9986, "lha": 9987, " or for ": 9988, " follow ": 9989, "n 3 ": 9990, "موش mo": 9991, "to your ": 9992, "isnt": 9993, "n rhet": 9994, "tion yes": 9995, "this con": 9996, "هاذيك ": 9997, "jects": 9998, "shorte": 9999, "is very ": 10000, " you go ": 10001, "l this": 10002, "نكلم": 10003, "ك can be": 10004, "to not": 10005, "ease of ": 10006, "sh its": 10007, "prayer": 10008, "lek ": 10009, "tened ": 10010, "tricky ": 10011, " lets go": 10012, " once ": 10013, "captur": 10014, "s well": 10015, "version ": 10016, " evident": 10017, "فيسع ": 10018, "sett": 10019, "lti": 10020, "ructure ": 10021, "g 3 ": 10022, " but can": 10023, "hammad": 10024, "sion of ": 10025, " questio": 10026, "alright ": 10027, "need to ": 10028, "erson ": 10029, "g 2 ": 10030, " to come": 10031, "كي العاد": 10032, "nough ": 10033, "envi": 10034, "to work ": 10035, "t or to ": 10036, "اسمع ": 10037, "ly tone ": 10038, "t verb ": 10039, "and uses": 10040, "ent in": 10041, "علي ": 10042, "نخرج": 10043, "thusia": 10044, "q this ": 10045, "ed 5 ": 10046, "enthus": 10047, " sala": 10048, " sister ": 10049, "وخيتي ": 10050, "tone 2 ": 10051, "ing you ": 10052, "necess": 10053, " at": 10054, "يظهر": 10055, "later ": 10056, "whole ": 10057, " able": 10058, " له ": 10059, "is it ": 10060, "ic which": 10061, "amel": 10062, "hhab ": 10063, " walk ": 10064, "eid ": 10065, "يعيشك ": 10066, "as yes": 10067, "adds an ": 10068, "blessing": 10069, "s also": 10070, "buy ": 10071, "yntax": 10072, "as see": 10073, "my god": 10074, " or stat": 10075, "ws 2 ": 10076, "khall": 10077, "lets go ": 10078, " or my": 10079, "n can v": 10080, " faq": 10081, " its own": 10082, " in some": 10083, "nario ": 10084, "resig": 10085, "nd is a ": 10086, " لها ": 10087, "or ah ": 10088, "الدار ": 10089, " female ": 10090, " be yes": 10091, " eight": 10092, "naq": 10093, "aily": 10094, "in moder": 10095, "attitude": 10096, "هبط": 10097, "stead ": 10098, " so i ": 10099, "or with ": 10100, "tunisias": 10101, "es ": 10102, "a point ": 10103, " drink ": 10104, "tand me ": 10105, "kept it ": 10106, " eno": 10107, "makes it": 10108, "sking ": 10109, "tell her": 10110, "iosi": 10111, "ta this ": 10112, "truth": 10113, "يامات ": 10114, "to tell ": 10115, "same way": 10116, "to under": 10117, " or ag": 10118, "الجمع": 10119, "ying a ": 10120, " needs": 10121, "lead to ": 10122, "hats it ": 10123, "arra": 10124, "مريق": 10125, " be less": 10126, " سوف": 10127, " resig": 10128, "icit": 10129, "mpat": 10130, "or he ": 10131, " vs ": 10132, "to get": 10133, "ماذا mad": 10134, "in arabi": 10135, "do it ": 10136, "he wor": 10137, "العباد ": 10138, "it from ": 10139, "t this i": 10140, "slee": 10141, "can lead": 10142, "ttings ": 10143, "tion يا ": 10144, "l phrase": 10145, "flects t": 10146, " negate": 10147, "of لا ": 10148, "intended": 10149, "of ever": 10150, "غادي": 10151, "es to no": 10152, "فما fam": 10153, "job ": 10154, "ing ever": 10155, " havent ": 10156, " dish ": 10157, " warmt": 10158, "عمل amal": 10159, "احكي": 10160, " imply a": 10161, "الصباح ": 10162, "ularly": 10163, "or p": 10164, "to happe": 10165, "whatever": 10166, "w means ": 10167, "da this ": 10168, "expens": 10169, "jayyid": 10170, " will go": 10171, "ssocia": 10172, "يقل ": 10173, "ent to": 10174, "ells": 10175, "د j": 10176, "ured in ": 10177, "sine": 10178, "g being ": 10179, "than its": 10180, "move": 10181, " wedding": 10182, "ation 5 ": 10183, " yes yes": 10184, "or more ": 10185, "xplain s": 10186, "ting or ": 10187, "the prep": 10188, " hopeful": 10189, "anymore": 10190, "change ": 10191, "arrived ": 10192, "rves to": 10193, "in other": 10194, "in some ": 10195, "approval": 10196, "my dear ": 10197, "ts the t": 10198, "for what": 10199, " wea": 10200, "l speech": 10201, " pie": 10202, "laki": 10203, "occurr": 10204, " compre": 10205, " 7 ": 10206, "with us ": 10207, "pati": 10208, "eat ": 10209, " outcome": 10210, "implifie": 10211, "s a bit ": 10212, "and pron": 10213, " fah": 10214, "wfa or ": 10215, "ate a ": 10216, "ذاك ": 10217, "she is ": 10218, "نحن ": 10219, "practice": 10220, "daily ": 10221, "rang": 10222, "viro": 10223, "text of ": 10224, "n for ": 10225, "k this": 10226, "reviou": 10227, "eason ": 10228, "in which": 10229, "disag": 10230, "ze the ": 10231, "ان شا": 10232, " دونك ": 10233, "سبت ": 10234, "حكيت": 10235, "مريم": 10236, "emo": 10237, "continui": 10238, "ديجا": 10239, "ميس ": 10240, "مرحبا ب": 10241, "view ": 10242, "معايا ": 10243, "زده ": 10244, "شيخ": 10245, "file": 10246, "له ": 10247, "عيش ": 10248, "سكندر": 10249, "والا ": 10250, "cienti": 10251, "الدنيا ": 10252, "حمام": 10253, "ناس الكل": 10254, "يرحم": 10255, "ويكن": 10256, "تجيب": 10257, " عباد ": 10258, " العباد ": 10259, "عزيز": 10260, "ديو ": 10261, " العشي": 10262, "ه كان ": 10263, "ه اع": 10264, "ه هو ": 10265, "عث": 10266, " و ما ": 10267, "type": 10268, "اختر": 10269, "ه حت": 10270, "تفكر": 10271, "عمر ": 10272, " حاجات ": 10273, "يقوللك ": 10274, "نجيب": 10275, "سيون ": 10276, "تاخذ": 10277, "شبيك ": 10278, " step 3 ": 10279, "حوم": 10280, "entific ": 10281, "يطلع": 10282, "ه معناها": 10283, "برمج": 10284, "بيب ": 10285, " العيد": 10286, "سان ": 10287, "خرجت ": 10288, "sections": 10289, "شفت ": 10290, "system": 10291, "produc": 10292, "lega": 10293, "مد لله ": 10294, " فار": 10295, "خر ": 10296, "بهم ": 10297, "عليهم ": 10298, "حبش ": 10299, "الام": 10300, " قلتله": 10301, "ارغ": 10302, "نبي": 10303, "اش ": 10304, "سعد": 10305, "رخص": 10306, " بربي": 10307, " ضرب": 10308, "فاتت ": 10309, " نلق": 10310, "نقعد": 10311, "بان ": 10312, "قرون": 10313, " بلاص": 10314, "uing t": 10315, "step 3 ": 10316, "عمري": 10317, " خاي": 10318, "وكان ": 10319, " نور": 10320, "قلبي": 10321, "زين ": 10322, "ي والله ": 10323, "صبا": 10324, " الساع": 10325, " عليهم ": 10326, "العاد": 10327, "للجمعه ": 10328, "غالط": 10329, " زعم": 10330, "عننا ": 10331, "cell": 10332, "ه ولا ": 10333, "راك ": 10334, "عبد ": 10335, "لتونس ": 10336, "عش ": 10337, "هرجا": 10338, "منين ": 10339, "رهب": 10340, "مريض": 10341, "23 ": 10342, "حكيل": 10343, "ساعه ": 10344, " لو كان ": 10345, "بصراح": 10346, " عيني": 10347, " ماهو ": 10348, "تذكر": 10349, "عش": 10350, " كل يوم ": 10351, "سل ": 10352, "كريم": 10353, "كبار": 10354, "ديت ": 10355, "حبيب": 10356, "فيق ": 10357, " صوت": 10358, "اسمعن": 10359, " روحه ": 10360, " مالا ": 10361, "لوج ": 10362, "ما نحب": 10363, " معايا ": 10364, " مانيش ": 10365, "سيف ": 10366, "تسمع ": 10367, "كملت": 10368, "برك ": 10369, "خوا": 10370, "قس ": 10371, "ايب ": 10372, "حمدل": 10373, "nt in ": 10374, "جاج ": 10375, "ng the t": 10376, "test": 10377, "ليش ": 10378, "دخلت ": 10379, " هاي": 10380, "دش ": 10381, "فيدي": 10382, "هذوما ": 10383, "نزيد": 10384, "حسيت": 10385, "كم ": 10386, "سلي": 10387, "وليت ": 10388, "اسرا": 10389, " و لا ": 10390, " اللي فا": 10391, "تكم ": 10392, "قلب ": 10393, "ي حت": 10394, "سع": 10395, " يا ربي ": 10396, "كيف": 10397, "دلله": 10398, "يلا ": 10399, "ه يعني ": 10400, " كون": 10401, "يا سيدي": 10402, " يعمل": 10403, "ي كان ": 10404, " راني ": 10405, "رواح": 10406, "امي ": 10407, "مانيش ": 10408, "meth": 10409, "ورمال ": 10410, "ترجع ": 10411, "قالوا ": 10412, "عارف": 10413, "سيت ": 10414, "خليني": 10415, "عرفت ": 10416, " نخدم": 10417, "يف ي": 10418, " تبع": 10419, "الاخ": 10420, " لهنا": 10421, "ديوان ": 10422, " تدخل": 10423, "plicat": 10424, "قوم ": 10425, "خالت": 10426, "اثنين لل": 10427, "غنا": 10428, "مقر": 10429, "ها هي ": 10430, "تو ": 10431, "وير": 10432, "تليف": 10433, "مون ": 10434, "وزيد": 10435, " بن ": 10436, "para": 10437, "نتخ": 10438, " يدخل": 10439, "حوايج": 10440, "نا الم": 10441, "امور": 10442, "عادي ": 10443, "ient": 10444, "ه والله ": 10445, " مريم": 10446, "fiel": 10447, "دير ": 10448, "دبر": 10449, "ملت ": 10450, "الحمد ": 10451, "بالنسبه ": 10452, " الكيف": 10453, "ك اللي ": 10454, " تخرج": 10455, "لي كان ": 10456, " يرحم": 10457, " كيف كيف": 10458, "عناها ": 10459, "ه كبيره ": 10460, "باهي ": 10461, "ي يا ": 10462, "فهمتش ": 10463, " ملا": 10464, "descript": 10465, "سمعني ": 10466, "يسبوك ": 10467, "ماما ": 10468, "velo": 10469, "نشر ": 10470, "حاسيلو ": 10471, "رمي": 10472, "tors": 10473, "توش ": 10474, "متاعك ": 10475, "لون ": 10476, "ديك ": 10477, " معاك ": 10478, "سامحني ": 10479, " هذاك ": 10480, " cod": 10481, "قلي ": 10482, "اعطي": 10483, "appl": 10484, "انسان ": 10485, "يرجع ": 10486, "علينا ": 10487, "يضرب": 10488, "سعيده ": 10489, " وجه": 10490, "بتس": 10491, "date": 10492, " شري": 10493, "شنو ": 10494, "ences 1 ": 10495, "حطيت": 10496, "thod": 10497, "sci": 10498, " والا ": 10499, "ماكش ": 10500, "زيكا": 10501, " اع": 10502, "oj": 10503, "قان ال": 10504, "contro": 10505, "مدام": 10506, "لي الم": 10507, "طفل": 10508, "عايل": 10509, " متاعي ": 10510, " بعيد": 10511, " الديوان": 10512, "الخدم": 10513, "فارغ": 10514, " فيس": 10515, "يقرا": 10516, " باي": 10517, " غالب": 10518, "نا من ": 10519, "ه متاع": 10520, "ه اي": 10521, "قدور": 10522, " وانت ": 10523, "جيش ": 10524, "حني ": 10525, "اهيم": 10526, "ضد ": 10527, " public": 10528, "يفون ": 10529, "اقص": 10530, "زيت ": 10531, " الاقل": 10532, " ونصف ": 10533, "report": 10534, "cro": 10535, "مشيش": 10536, "كتي": 10537, "ن الفطر": 10538, "ه ربي ": 10539, "تراع": 10540, "ونص": 10541, "بغ": 10542, " رجع": 10543, " لانه ": 10544, " pat": 10545, " برك ": 10546, "حوالك ": 10547, "خليت": 10548, "اسمه": 10549, "تيك ": 10550, "ك انت ": 10551, "ه اس": 10552, "ايام": 10553, "ence in ": 10554, "ديه ": 10555, " الباب": 10556, "عدنان ": 10557, " العظيم": 10558, "رجال ": 10559, "ي مش": 10560, "رقد ": 10561, "ماكل": 10562, " عن": 10563, "فرد ": 10564, "معلم": 10565, "شريت": 10566, "مبروك ": 10567, "شطر": 10568, "بلاش": 10569, " dat": 10570, "خمي": 10571, "جهاز": 10572, "خبز": 10573, " وكل شي ": 10574, " وانا ": 10575, "تونسيه ": 10576, "مازالت": 10577, "خليك": 10578, "واحد ي": 10579, " تبدا ": 10580, " مليك": 10581, "بور ": 10582, " روح": 10583, "حكي عل": 10584, "باك ": 10585, "راز ": 10586, "شخ": 10587, "تبع ": 10588, "طل": 10589, "ي انا ": 10590, "سبوك ": 10591, "deve": 10592, "هيا ": 10593, " تسمع ": 10594, " تعمل": 10595, " يزي": 10596, "وا فيها": 10597, "درا ": 10598, "قلك ": 10599, "ميد ": 10600, "ندخل": 10601, "نتصور": 10602, " system": 10603, "يروح": 10604, "شبا": 10605, "روحه ": 10606, "الحاج": 10607, "حزب ال": 10608, "ي باهي ": 10609, "جح ": 10610, "مشينا ": 10611, "خان": 10612, "امشي": 10613, " high ": 10614, " شهر ": 10615, " معاه ": 10616, "الاول": 10617, "بش": 10618, "يله ": 10619, "عروس": 10620, "دس ": 10621, " شويه ": 10622, " ميا": 10623, "ليوم ": 10624, "س في ": 10625, " طيب": 10626, "خايف": 10627, "ه باش ": 10628, "الله ": 10629, "ثبت ": 10630, "ورق": 10631, " ولا لا ": 10632, "بتك ": 10633, "سالش ": 10634, "يحبوا ": 10635, "زلنا ": 10636, "هم عل": 10637, "ستاذ": 10638, "تتح": 10639, "اسمها ": 10640, "مني ن": 10641, "اخي ": 10642, "لي في ": 10643, "علاج": 10644, "تطلع": 10645, "بدل ": 10646, "يا اخ": 10647, "ش و ": 10648, "د و ": 10649, "فك ": 10650, "براه": 10651, "وا بال": 10652, "مهرج": 10653, "قش ": 10654, "ي هو ": 10655, "بنات ": 10656, "ربي يس": 10657, " طريق": 10658, "programm": 10659, " قهو": 10660, " هاذيكا": 10661, " لحظ": 10662, " وقتاش": 10663, "ليم ": 10664, "erro": 10665, "عظم": 10666, "ه تو": 10667, " حقو": 10668, "خيص": 10669, "تصوي": 10670, "gram ": 10671, "humo": 10672, "خلايا ": 10673, "ن من ": 10674, "قنا": 10675, "زر ": 10676, "طبيب ": 10677, "termin": 10678, " يولي ": 10679, "شوفوا ": 10680, "كل مر": 10681, " في بال": 10682, "نا نحب": 10683, "حب ن": 10684, "ه او": 10685, "صفاق": 10686, " زيد": 10687, "بنت ": 10688, "كلمه ": 10689, "ي differ": 10690, "سبور": 10691, "ه التونس": 10692, " الثلاث": 10693, " مازالت": 10694, "روح": 10695, " هك": 10696, "طيار": 10697, "خلاف": 10698, "ه اليوم ": 10699, "لبار": 10700, " صغار": 10701, "ذات ": 10702, "خوف": 10703, "ه مر": 10704, "صبر": 10705, "س و ": 10706, "لحق ": 10707, "تبدل ": 10708, " ضد ": 10709, "ه برشا": 10710, "ذج ": 10711, "جان ": 10712, " بابا ": 10713, "يلك ": 10714, "النهار ": 10715, "اكم ": 10716, "ماعاد": 10717, "ت بال": 10718, "ribu": 10719, " sec": 10720, "ناقص": 10721, "مش ي": 10722, " تقعد": 10723, "ارك ": 10724, "هاوي": 10725, " ما يت": 10726, "فلوس": 10727, " med": 10728, "ريب": 10729, "بي ": 10730, " مبر": 10731, "n شنو ": 10732, "n كيفاش ": 10733, "n هل ": 10734, "n اكتب": 10735, "n شكون ": 10736, "شنو هي ": 10737, " mn ": 10738, " l2": 10739, " fiy ": 10740, "kwn": 10741, "byr ": 10742, "mouw": 10743, " hth": 10744, "مراض": 10745, "قوي": 10746, "d5": 10747, "dr ": 10748, "25": 10749, "yz": 10750, "louw": 10751, "fyh ": 10752, "wd ": 10753, "yk ": 10754, " خات": 10755, "5dm ": 10756, "مطار ": 10757, "kouw": 10758, "rist": 10759, "rk": 10760, "دن": 10761, "bd ": 10762, "يان": 10763, "jdyd ": 10764, "9bl": 10765, "زف ": 10766, "ch t": 10767, "لكتروني": 10768, "touw": 10769, " 3nd": 10770, "ملخص": 10771, "تم ": 10772, "تنجم ت": 10773, "ف عل": 10774, " bch": 10775, " ول": 10776, "مقاطع": 10777, "كاديم": 10778, "سار": 10779, "wdh": 10780, "وصول ": 10781, "عاون": 10782, "louw ": 10783, "بالتونسي": 10784, "ise ": 10785, "جوا": 10786, " عالي": 10787, "hth ": 10788, "ا م": 10789, "حمر ": 10790, "جزي": 10791, "ولمبي": 10792, "قبل ما ": 10793, "يمكننا ": 10794, "م لل": 10795, "ي م": 10796, "نجوم": 10797, "زيا": 10798, "عاطف": 10799, "ربون ": 10800, "y5y ": 10801, " جا": 10802, "جوم ": 10803, " mch": 10804, "القص": 10805, "يميل ": 10806, "ايد": 10807, "رجل ": 10808, "و م": 10809, "هجو": 10810, "تكنولوجي": 10811, "sr ": 10812, "tj": 10813, "tb ": 10814, "bch n": 10815, " حرك": 10816, "مع ال": 10817, "شجر": 10818, " العا": 10819, " المشكل": 10820, "نيا": 10821, "فوا": 10822, "بارا": 10823, "schoo": 10824, "ناري": 10825, "طرق ": 10826, "كمي": 10827, " يجب ": 10828, "ممتا": 10829, "نبر": 10830, "تشير ": 10831, " بنت ": 10832, "شبك": 10833, "لكي": 10834, "خفي": 10835, "wf ": 10836, "يوفر": 10837, " 2ist": 10838, "ناي": 10839, "تحسين ": 10840, "b3d ": 10841, " lz": 10842, "23": 10843, "شاف ": 10844, " t7": 10845, "حتوي عل": 10846, "كامي": 10847, " الماكل": 10848, "غطي": 10849, "خصا": 10850, "douw ": 10851, "حلل ال": 10852, "ماس ": 10853, "مبراطوري": 10854, " نقص": 10855, "jy ": 10856, "حديد": 10857, "wwa": 10858, "wb ": 10859, "غريد": 10860, "قطع": 10861, " متاعهم ": 10862, " بل ": 10863, "ouwn ": 10864, " الكتاب ": 10865, "معرف": 10866, " والفرضي": 10867, " الترجم": 10868, "نقار": 10869, "تترجم": 10870, " خاطرها": 10871, "نظيف": 10872, "وروبا ": 10873, " الزبا": 10874, "هتم": 10875, "رات الم": 10876, "jj": 10877, " الموجود": 10878, " داخل ال": 10879, "ed his": 10880, "دوي": 10881, "تعرض": 10882, "ثوق": 10883, " عيد": 10884, "premis": 10885, "المتاح": 10886, " تحكي عل": 10887, " مز": 10888, "بعض ال": 10889, "ضمان ": 10890, "سريع": 10891, "صدار": 10892, "سبتمبر": 10893, "في هال": 10894, "فريد": 10895, "ثلج": 10896, "وسي": 10897, "مريكا ": 10898, "نفكر": 10899, "5l ": 10900, "سيا ": 10901, "ربح ": 10902, "nn ": 10903, "ستحيل ": 10904, "hw": 10905, "kr ": 10906, " التجار": 10907, "مناسب": 10908, " 15 ": 10909, "amer": 10910, "مملك": 10911, "عاون ": 10912, "7t ": 10913, " mit": 10914, "sn ": 10915, " نيويورك": 10916, "تبد": 10917, "صغر ": 10918, "رغم من ": 10919, " توصف ": 10920, " الهدف ": 10921, "uwn ": 10922, " فتر": 10923, "دني": 10924, "مريكا ال": 10925, "مرتبط": 10926, "سينا": 10927, "eric": 10928, "دريب": 10929, "مبيوتر ": 10930, "mise ": 10931, "rdh ": 10932, " بخصوص": 10933, "برت ": 10934, " طبيعي": 10935, "nw": 10936, "هي ال": 10937, " من حيث": 10938, "غذا": 10939, " عن طريق": 10940, " يلعب ": 10941, "العلاق": 10942, "وا ب": 10943, "md ": 10944, " مكتو": 10945, " المخ": 10946, " تغيير": 10947, "يكون ": 10948, "شمالي": 10949, "مان": 10950, " تذكر ": 10951, " وسيل": 10952, "5rj": 10953, " يتحدث": 10954, "صعوب": 10955, "نب": 10956, "ته في ": 10957, " 196": 10958, " اختيار": 10959, "ختام": 10960, "3lyh ": 10961, "عقد": 10962, "سباق": 10963, "tk": 10964, "عطيك ": 10965, "احتم": 10966, "نظيم": 10967, " الفرنسي": 10968, "اوي": 10969, "منص": 10970, "الين ": 10971, "كهربا": 10972, "هتمام": 10973, "يحاول ": 10974, "المقال": 10975, "تقلي": 10976, "قاع": 10977, "mma ": 10978, "لمد": 10979, "مرا": 10980, " المعن": 10981, " ممتاز": 10982, " مركز": 10983, "ist ": 10984, "88": 10985, "روس ": 10986, "زرق ": 10987, "مشاه": 10988, "نات": 10989, "كثر عل": 10990, "يذكر": 10991, "يواجه": 10992, " 100": 10993, "mt3w ": 10994, " الجسم": 10995, " ما هيش ": 10996, "غرافي": 10997, "يسبب ": 10998, "جيل ": 10999, "طابق": 11000, "شبه ": 11001, "حن": 11002, "ين من ": 11003, "شد": 11004, "45 ": 11005, "mou": 11006, " للغ": 11007, "كيميا": 11008, "قتل ": 11009, " ربح": 11010, " مت": 11011, " هل يمكن": 11012, "7j": 11013, "ساوي": 11014, "التعليم": 11015, "و غير": 11016, "دق": 11017, "العملي": 11018, "lla ": 11019, "فير ": 11020, " التحلي": 11021, "198": 11022, "يبدو ": 11023, "فعالي": 11024, "دليل ": 11025, " متر": 11026, " mil": 11027, " اللعب": 11028, "مهارات": 11029, "ican": 11030, "نتا": 11031, "نث": 11032, "mchy ": 11033, "طلاق ": 11034, " 3al": 11035, "ما ينجمش": 11036, " مستنتج": 11037, "هن": 11038, "لفي": 11039, "58": 11040, "ch n": 11041, "رقم ": 11042, " باسم ": 11043, "لازم": 11044, "قياد": 11045, " جيد": 11046, " يبدو ": 11047, "مصطلح": 11048, " مناسب ": 11049, " ومر": 11050, " قابل": 11051, "59": 11052, " الفرق ": 11053, "تتعلق": 11054, "لما": 11055, "n ترجم": 11056, " بير": 11057, "wry": 11058, "فن": 11059, "فعال ": 11060, "طط ": 11061, " يحس": 11062, "مشارك": 11063, " ويخ": 11064, "ghyr ": 11065, "خلفي": 11066, " بور": 11067, "قبول": 11068, " given": 11069, " مساعد": 11070, "اعتبار": 11071, " يظهر ": 11072, " السابق": 11073, "touw ": 11074, "فريل ": 11075, "تراض": 11076, "78": 11077, "يقوم": 11078, "بعضهم ": 11079, "قبل ما ت": 11080, "وا من ": 11081, "ندق ": 11082, "تفسير": 11083, "نهر ": 11084, "90": 11085, "49": 11086, "النها": 11087, "عنصر ": 11088, "ذيذ": 11089, "خضر ": 11090, " السري": 11091, "ردي": 11092, " المكان ": 11093, " يشير ": 11094, " بالنظر ": 11095, "زبا": 11096, "ريم": 11097, "تجارب": 11098, " السلبي": 11099, "اسب لل": 11100, "موسم": 11101, "bch t": 11102, "2ist": 11103, "شتا": 11104, " في منطق": 11105, "sw": 11106, "مركز ": 11107, "youw": 11108, " كيما ال": 11109, "حذ": 11110, "عتقد ": 11111, "كاليف": 11112, "كنيس": 11113, "r2": 11114, "صرا": 11115, "ترض ": 11116, "هام ": 11117, "بت": 11118, "68": 11119, " ماري": 11120, "رات ال": 11121, "تصمي": 11122, "شنو هو ": 11123, "ناطق": 11124, "شرط": 11125, "نوفم": 11126, "كلب ": 11127, "مساف": 11128, "قواعد": 11129, " اختر": 11130, "هالجمل": 11131, " خيارات ": 11132, " ومت": 11133, " توصل": 11134, " قال ": 11135, "ق عل": 11136, "جدي": 11137, "رقا": 11138, " الفريق ": 11139, "يارد": 11140, " بسيط": 11141, "ي واحد": 11142, "لذي": 11143, "بوضو": 11144, " مليح ": 11145, " طاق": 11146, "ديسم": 11147, "ولين ": 11148, "طلوب": 11149, "ذا ما ": 11150, "وسط": 11151, "تنظيم": 11152, "زال": 11153, "فعلا": 11154, "yj": 11155, "بطول": 11156, " في 200": 11157, "تلعب": 11158, " متنوع": 11159, " نقط": 11160, "صوص": 11161, "الا": 11162, "مصدر": 11163, "الطاق": 11164, " الصور": 11165, " سابق": 11166, "بخصوص": 11167, "ضرور": 11168, "يدل عل": 11169, "مناسب ": 11170, " قريب": 11171, "وجه": 11172, "ممتع": 11173, " وم": 11174, "فيد ": 11175, "ارد": 11176, "اللي ت": 11177, "ستنتج ": 11178, "ضم ": 11179, "ياغ": 11180, " خص": 11181, "لوان ": 11182, "ستيف": 11183, "chy ": 11184, "اختبار": 11185, "نادي ": 11186, "twns ": 11187, "نحا": 11188, "صحي": 11189, " مريح": 11190, " المدرس": 11191, "مساح": 11192, "sco": 11193, "نتمي": 11194, "تغيير": 11195, "output": 11196, "حافظ عل": 11197, "حفل": 11198, "فيف": 11199, " الهند": 11200, "جورج": 11201, "توقع ": 11202, "dw": 11203, "يشير ": 11204, "رون ": 11205, "مشاعر ": 11206, "كتشف ": 11207, " تصير ": 11208, "ثق": 11209, "mz": 11210, "iyn ": 11211, " البحث": 11212, " فريد": 11213, " قطع": 11214, "اتصا": 11215, "جيمس": 11216, "نجاوب عل": 11217, "m7": 11218, " مغ": 11219, "افق ": 11220, "حي ": 11221, "محاول": 11222, " مثير": 11223, "نلندي": 11224, "قياس": 11225, " غلط": 11226, "مكاني": 11227, "ظهور": 11228, " عنا ": 11229, "الفعل": 11230, " البيان": 11231, "حروف": 11232, "الات ": 11233, "ضطراب": 11234, "فتراض": 11235, " المنتج": 11236, "اختصار": 11237, "ويت ": 11238, "صطلح": 11239, "كونش ": 11240, " الساح": 11241, "انغ": 11242, "توقع": 11243, "سل": 11244, " الحدث": 11245, " فنان": 11246, "طباق": 11247, "ما كانش ": 11248, " نبات": 11249, " الشمالي": 11250, "ليكس ": 11251, "عاصم": 11252, "عمل مكتو": 11253, " 50": 11254, " سط": 11255, "ثاني": 11256, " الروم": 11257, " مشاعر": 11258, "ويور": 11259, " سلسل": 11260, "اون ": 11261, "ذاكر": 11262, "ساس": 11263, "نبحث": 11264, "وضوح": 11265, "نيوي": 11266, "اتيجي": 11267, "ترك": 11268, " فرص": 11269, "عمار": 11270, "متع": 11271, "في 201": 11272, "ستقبل": 11273, "شاهد": 11274, "ستر ": 11275, "عارض": 11276, "تياج": 11277, "ص ": 11278, "سام ": 11279, "تحقق ": 11280, "الخاص": 11281, "بحري": 11282, "واحد من ": 11283, "الشعور": 11284, "شابه": 11285, "n بر": 11286, "ما تنجمش": 11287, " داخل ": 11288, "ورد ": 11289, " يقدم": 11290, "كانت ": 11291, "هالشي": 11292, "مام": 11293, "الموسيق": 11294, "شرق ": 11295, "صيني": 11296, "بحير": 11297, " قو": 11298, "جانفي": 11299, " مطعم": 11300, " ويح": 11301, " هالشي": 11302, "صنف": 11303, "و عمل ": 11304, "بيث": 11305, " تفاصيل": 11306, "عمق ": 11307, " من طرف ": 11308, "مكتوب": 11309, "لون": 11310, "صطناعي": 11311, "عن طريق ": 11312, "تمر ": 11313, " رحل": 11314, "مكون": 11315, " متاعه ": 11316, "iii ": 11317, " هما ": 11318, " الصوت": 11319, "جهتين ": 11320, "يقول ": 11321, "ين لل": 11322, "سجل ": 11323, "بريد": 11324, " دراس": 11325, " التص": 11326, " مصمم": 11327, "كانت ت": 11328, " لقيت ": 11329, "واضح": 11330, "حددوا ": 11331, " المعلم ": 11332, "ذبي": 11333, " تاي": 11334, " تتحدث": 11335, "انوي": 11336, "مذكور": 11337, " الصيني": 11338, " الروا": 11339, "يناريو": 11340, "صحيح ": 11341, "ماد": 11342, "محتم": 11343, "بوضوح ": 11344, "ارس ": 11345, " الشرقي": 11346, " تويت": 11347, "هوم ": 11348, "35 ": 11349, "جنسي": 11350, "نيو ": 11351, "ومع ": 11352, "استنتاج ": 11353, "شيكي": 11354, " ترام": 11355, " التركيب": 11356, "معط": 11357, " السل": 11358, "عك": 11359, "لوث": 11360, "نيس": 11361, " شغ": 11362, "حباط": 11363, "تكون ": 11364, "عتبار": 11365, "تماد": 11366, "زين": 11367, " 1 تحديد": 11368, "في 200": 11369, "لاست": 11370, "اهي": 11371, " مشهور": 11372, "شنط": 11373, " المختلف": 11374, " المساعد": 11375, "الجوي": 11376, " est": 11377, "طح ": 11378, " كلب": 11379, "مواضيع": 11380, "كتشاف": 11381, "كدوا ": 11382, "الهدف ": 11383, "مجرد ": 11384, "ينات": 11385, "اللغ": 11386, "برك": 11387, " في مج": 11388, "توح": 11389, "قري": 11390, "وسع ": 11391, " سي": 11392, " التبر": 11393, "وضح ": 11394, " الجه": 11395, "صني": 11396, " الثقاف": 11397, " زوج": 11398, "كي ي": 11399, "ثالث": 11400, "يبرز": 11401, "قليدي": 11402, " جامع": 11403, "بروت": 11404, " ضفا": 11405, " يمكن": 11406, "اكتشا": 11407, "حصول عل": 11408, "رواي": 11409, "مواق": 11410, " من جه": 11411, "داي": 11412, "ن ي": 11413, "سيناري": 11414, "هم لل": 11415, " كلي": 11416, "تشكي": 11417, " تصف ": 11418, "تراف": 11419, "تبق": 11420, " السبب ": 11421, "كبير في ": 11422, "بسيط": 11423, " تبق": 11424, "قميص": 11425, " كانوا ": 11426, "هش": 11427, " التقل": 11428, "كلي": 11429, " النتيج": 11430, " جنب ": 11431, " القو": 11432, "ناس": 11433, "تزايد": 11434, " في حال": 11435, "لندن ": 11436, "رتفاع": 11437, "وبرا": 11438, "تباه": 11439, "حساس بال": 11440, "صخور": 11441, " مشاكل ": 11442, " كالي": 11443, " كتاب ": 11444, "جميع ": 11445, "كاديمي": 11446, " حسب ما ": 11447, "توا": 11448, "انتب": 11449, " باللغ": 11450, "ترك ": 11451, "دفع ": 11452, " ملخص": 11453, " اللاع": 11454, " توضح ": 11455, "يلق": 11456, "فاف ال": 11457, "سجن": 11458, "روماني": 11459, " موش بال": 11460, " الحرك": 11461, " الجنوبي": 11462, " بدات ": 11463, "لحال": 11464, " شرا": 11465, "ات كبير": 11466, "نقاذ": 11467, " output": 11468, " عوامل ": 11469, "n شنو": 11470, "بقا": 11471, " الكاتب ": 11472, " التفكي": 11473, " كول": 11474, "ج الم": 11475, "مب ": 11476, " القا": 11477, "تاجوا ": 11478, " 40": 11479, " المتوسط": 11480, "طح ال": 11481, "لعب دور ": 11482, "مفيد": 11483, "نشاط ": 11484, "يطلب": 11485, " بدلا": 11486, "اته ": 11487, "شيل ": 11488, "سابيع": 11489, "قاتل": 11490, "جاوز": 11491, "استم": 11492, "حث عل": 11493, "ترح ": 11494, "معين": 11495, "ضل": 11496, "مشتر": 11497, " للمنتج ": 11498, " الغذا": 11499, "افظ": 11500, " قديم": 11501, " الشعور": 11502, "مزيج": 11503, "خطا": 11504, " الطلب": 11505, "مثيل ": 11506, " دعم": 11507, " تكس": 11508, " تعتبر ": 11509, " الخارجي": 11510, "task ": 11511, "زواج ": 11512, "فز ": 11513, "يكونوا ": 11514, " تقريبا": 11515, "تنقل": 11516, "اليفور": 11517, "ينقص": 11518, "حص": 11519, " جميع ال": 11520, "نحدد ": 11521, " نستنتج ": 11522, " رجل ": 11523, " وفا": 11524, "اختلاف": 11525, "محيط ": 11526, "باح": 11527, " فير": 11528, " المرتبط": 11529, "جمهور ": 11530, "عن ": 11531, "يس كري": 11532, " جوانب ": 11533, "options ": 11534, "حمل ": 11535, " ديف": 11536, " كاي": 11537, "صيغ": 11538, "مصادر ": 11539, "يبق": 11540, " يذكر ": 11541, " كلا": 11542, "قه": 11543, " في عالم": 11544, "مناطق ال": 11545, "بقي": 11546, " تلعب ": 11547, "تعليمات ": 11548, "الجديد": 11549, " نتصور": 11550, "مصمم": 11551, " الجامع": 11552, " وكانت": 11553, " التشي": 11554, " ولات ": 11555, " بالضبط ": 11556, " في ني": 11557, "ال يس": 11558, "زور": 11559, "ونات ": 11560, " الزوز": 11561, "بني عل": 11562, "فاهي": 11563, " الرجل ": 11564, " لابس": 11565, "ذكرش ": 11566, " الوسط": 11567, " 1 حدد ": 11568, "جنب ": 11569, "31 ": 11570, " الكر": 11571, " رقم ": 11572, "فضل": 11573, " 13 ": 11574, "ورك ": 11575, " 3 نح": 11576, " فلو": 11577, "لاحظ ": 11578, " تقديم": 11579, " المشاعر": 11580, "واخر ": 11581, "بساط": 11582, "كمبي": 11583, "نيوم": 11584, " 197": 11585, "المدين": 11586, "ندرو": 11587, "ليزا": 11588, " كل واحد": 11589, "سمح ": 11590, "هاري": 11591, "نباتات ": 11592, " لكن ": 11593, " يستعمل ": 11594, " جود": 11595, "سهول": 11596, "تان ": 11597, "انسيس": 11598, "ابط ": 11599, "هم ال": 11600, "لامذ": 11601, " من هال": 11602, " بات": 11603, "يجب ": 11604, " input": 11605, " 25 ": 11606, "ياسي": 11607, " وبد": 11608, "مق": 11609, " في سياق": 11610, "32 ": 11611, " عادي": 11612, " طرق ": 11613, "زب ال": 11614, "وماني": 11615, "عروض": 11616, " مقبول": 11617, " الكهربا": 11618, " ويش": 11619, "مدخل": 11620, "السبب ": 11621, " بريطا": 11622, "ات غير": 11623, "12": 11624, "ياق ": 11625, "رم": 11626, "مات مفصل": 11627, "دعا": 11628, "لذيذ": 11629, "خلاقي": 11630, "جهود": 11631, "تكوين ": 11632, "اته ال": 11633, "ساهم في ": 11634, "حلام": 11635, " هاذم ": 11636, "وسيل": 11637, " بي": 11638, "فين": 11639, " تطبيق ": 11640, "الكلم": 11641, "الحرب": 11642, " وغالب": 11643, " باك": 11644, "ن يت": 11645, " سبا": 11646, "كيت ": 11647, " المركز": 11648, "كندا": 11649, "اتك ": 11650, " جير": 11651, "جول": 11652, " مناسب": 11653, "لقب ": 11654, " في هالح": 11655, "كد من ": 11656, "بلاي": 11657, "للعا": 11658, "ب وال": 11659, " الحديث": 11660, " وكيفاش ": 11661, "فراغ": 11662, " اللي يح": 11663, "يمثل ": 11664, "196": 11665, "استعمل ": 11666, " نطاق": 11667, "سحب": 11668, "premise ": 11669, " نمو": 11670, " نهاي": 11671, "فريقيا ": 11672, "امض": 11673, " شعور": 11674, "رتيب ال": 11675, " تعلم": 11676, " كان ": 11677, "فرحان ": 11678, " اللي خل": 11679, "ممتاز ": 11680, " المشتر": 11681, "الطبيعي": 11682, "ع لل": 11683, "ميل": 11684, " المحدد": 11685, "جاذ": 11686, " منظم": 11687, " توفر": 11688, " جسم": 11689, "عناصر ": 11690, "ملعب": 11691, "المناسب": 11692, " التركيز": 11693, "استرات": 11694, "معقد": 11695, "جسا": 11696, "ننا ن": 11697, " ياخذ": 11698, "جليز": 11699, "بيل ": 11700, "ع ذلك": 11701, "قليل ": 11702, " السن": 11703, "تاحي": 11704, " مبن": 11705, " درا": 11706, "دولي": 11707, " سار": 11708, "يلزمك": 11709, "يكتشف": 11710, " تتطلب": 11711, " رسمي": 11712, " موقع ": 11713, "ح لل": 11714, "احتف": 11715, "طاعم": 11716, "حبوب": 11717, "تنفي": 11718, " شخصx": 11719, " 14 ": 11720, " يبق": 11721, " برنامج": 11722, "س وال": 11723, "باش ت": 11724, "عسكري": 11725, "ثانوي": 11726, "كون": 11727, "يوم": 11728, " مكتب": 11729, "المنطق": 11730, "قليم": 11731, "derja ": 11732, "شنو sh": 11733, "text it": 11734, "shnu ": 11735, "turday": 11736, "ainty or": 11737, "s verb ": 11738, "curios": 11739, "mately": 11740, " rigid": 11741, " kayfa": 11742, "والكل ": 11743, "enthusia": 11744, "dhhab ": 11745, "derja ha": 11746, "mpathy ": 11747, "gods": 11748, "or thing": 11749, "command ": 11750, " limadha": 11751, "lect der": 11752, "شني sh": 11753, "week ": 11754, "aunt ": 11755, "near": 11756, "fluid ": 11757, "ms to me": 11758, "negate": 11759, "ine form": 11760, " huw": 11761, "like ": 11762, " thats": 11763, "a repeti": 11764, "car ": 11765, "nest": 11766, "haba": 11767, "ouns": 11768, "or also ": 11769, "ding to ": 11770, "explicit": 11771, "vocative": 11772, "cuis": 11773, "بخير": 11774, " ذهب": 11775, " enough ": 11776, "term not": 11777, "of ماذا": 11778, "n 4 ": 11779, "but in": 11780, "isine ": 11781, "sence of": 11782, " nhar ": 11783, "es agre": 11784, " i know ": 11785, "ما but ": 11786, "oneself ": 11787, "hhuh ": 11788, "hild": 11789, " وا ": 11790, "تو now ": 11791, "راهو ra": 11792, "or by ": 11793, " later ": 11794, "alyawm ": 11795, "wedding ": 11796, "ences in": 11797, "or like ": 11798, "tood in ": 11799, " ني ": 11800, "occu": 11801, "من min ": 11802, "tell him": 11803, "hunak ": 11804, " or by": 11805, " least": 11806, "or its": 11807, "indeed": 11808, "modifi": 11809, "ish 3 ": 11810, " to not ": 11811, "stand me": 11812, "insh": 11813, "to my ": 11814, "l stat": 11815, " or many": 11816, "n inter": 11817, "bought": 11818, "ly sig": 11819, "ياخي ya": 11820, " lot or ": 11821, "least ": 11822, "qalet": 11823, "works ": 11824, "for now ": 11825, "l undert": 11826, "ference ": 11827, "will go ": 11828, " marker ": 11829, "n it": 11830, "lective ": 11831, "iasm ": 11832, " bikha": 11833, "اسمعني ": 11834, "اللي ill": 11835, "res the ": 11836, "hayr ": 11837, "per name": 11838, "akh": 11839, " observ": 11840, "n action": 11841, " or god ": 11842, "gender": 11843, "you want": 11844, "ed over": 11845, "for them": 11846, "or has": 11847, "n way of": 11848, "hba": 11849, "يظهرلي ": 11850, "gain": 11851, "خاطر kha": 11852, " denot": 11853, " do it": 11854, "خير bik": 11855, "omit": 11856, "itly": 11857, "or which": 11858, " daily": 11859, "ect the ": 11860, "زعما ": 11861, "ic 2 ": 11862, " but ": 11863, "ndard ": 11864, "about it": 11865, " sets a ": 11866, " ah ": 11867, "العيد": 11868, "haracter": 11869, "that can": 11870, "okay or ": 11871, "غاديكا": 11872, "he or ": 11873, "bath": 11874, "n 2 ": 11875, "be under": 11876, "der to i": 11877, "lose ": 11878, "hz": 11879, "اليوم al": 11880, "mselves ": 11881, "يا iya ": 11882, "itud": 11883, "nt verb ": 11884, " poor ": 11885, " clause ": 11886, "تروح": 11887, "tood you": 11888, "saturd": 11889, "ing yes": 11890, "ou this ": 11891, "at lea": 11892, "and tone": 11893, "ion here": 11894, "ns we ": 11895, "es verb ": 11896, "es to my": 11897, "uisine": 11898, "dun": 11899, "flects": 11900, "enviro": 11901, "ronment": 11902, "a or": 11903, " cui": 11904, "ns she": 11905, "ما زال ": 11906, " or if": 11907, "ligation": 11908, "bic 3 ": 11909, "هكذا": 11910, "act of ": 11911, "or usage": 11912, "its an": 11913, "woke up ": 11914, "shared": 11915, "youm ": 11916, "absenc": 11917, " ya ": 11918, "it comes": 11919, "care of ": 11920, " as the ": 11921, "peti": 11922, "mdul": 11923, "ish the ": 11924, "we go ": 11925, "ت dhahab": 11926, "cularly": 11927, "outcome": 11928, " i said ": 11929, " faqat": 11930, "asked ": 11931, "is fine": 11932, "not and ": 11933, "or under": 11934, "ained ": 11935, " up": 11936, " at home": 11937, " or من ": 11938, "ns its": 11939, " things ": 11940, "kun": 11941, "uly ": 11942, "surance": 11943, "نقللك ": 11944, "ujad": 11945, "trul": 11946, "لي qil": 11947, "ي this": 11948, "shk": 11949, "ic ": 11950, "لم ": 11951, "meat": 11952, " girl ": 11953, "sick ": 11954, " having ": 11955, "n phrase": 11956, " show": 11957, "tually": 11958, " as i ": 11959, "ant in": 11960, "moving": 11961, "لماذا": 11962, " or like": 11963, "tively": 11964, " ش sh": 11965, "ها is a": 11966, "to keep ": 11967, " refus": 11968, "ش sh": 11969, "ximity ": 11970, "lway": 11971, "a group ": 11972, " you do ": 11973, "hdh": 11974, "anno": 11975, "laz": 11976, "lini": 11977, "mala": 11978, "ts but": 11979, "seek ": 11980, "its okay": 11981, "the ش ": 11982, "sea ": 11983, " called": 11984, "mash": 11985, "ffix ش": 11986, "shift": 11987, "zim": 11988, "ihi": 11989, "meal": 11990, "state or": 11991, " mom": 11992, "s them": 11993, "كيف حال": 11994, "n about ": 11995, "ly this ": 11996, "that has": 11997, "فقط faq": 11998, " bought": 11999, "dulilla": 12000, " not or ": 12001, "i chose ": 12002, "press ": 12003, "c inco": 12004, "quaint": 12005, "ion not ": 12006, " mu": 12007, " or even": 12008, "fusa": 12009, "etimes": 12010, " لا la": 12011, "min aj": 12012, "familial": 12013, "chee": 12014, "2 contex": 12015, "جل min ": 12016, "sense ": 12017, " goes": 12018, "what you": 12019, "ma means": 12020, " curiosi": 12021, " fine or": 12022, "perhaps ": 12023, "abor": 12024, "est for ": 12025, "latable ": 12026, "ether ": 12027, "s all ": 12028, "حمدلله ": 12029, "لا باس ": 12030, " taken": 12031, "هاذوكم ": 12032, "patterns": 12033, "bic 2 ": 12034, "العظيم": 12035, "or dis": 12036, "sh 3 ": 12037, " celebr": 12038, "lot of": 12039, "craz": 12040, "reassur": 12041, " the day": 12042, "one or a": 12043, "seeks to": 12044, "meet": 12045, "امالا ": 12046, "mom ": 12047, "ly state": 12048, " and لك ": 12049, "attemp": 12050, "manage": 12051, "to we ": 12052, "usually ": 12053, "bint": 12054, "eminine ": 12055, " artic": 12056, "or of th": 12057, "fa hal": 12058, "sion or ": 12059, "لكي laki": 12060, "ry some ": 12061, "nuance ": 12062, "or to be": 12063, " letter": 12064, "illu": 12065, "ch this ": 12066, "raho": 12067, "نرمال ": 12068, "localiz": 12069, "undance ": 12070, " modifie": 12071, " mash": 12072, " coming ": 12073, "alters ": 12074, "a comp": 12075, "t 5 ": 12076, "allowing": 12077, "o be": 12078, "مال": 12079, "whet": 12080, "aintance": 12081, " of both": 12082, "ts how": 12083, "ned with": 12084, " believ": 12085, "mill": 12086, "or after": 12087, "on which": 12088, "s can be": 12089, "b to do ": 12090, "give you": 12091, " occurr": 12092, " sawfa": 12093, "north ": 12094, " alig": 12095, "هاي ": 12096, "haw ": 12097, "taken ": 12098, "we have ": 12099, "fic to t": 12100, "favo": 12101, "part is ": 12102, "a verb ": 12103, " flow ": 12104, "كهو is a": 12105, " aunt ": 12106, "tion ما ": 12107, "ion 4 ": 12108, " to add ": 12109, "ed or i ": 12110, "or a bit": 12111, "dur": 12112, " or how ": 12113, "to this ": 12114, "aha this": 12115, "هكا hak": 12116, "aka ": 12117, "ing both": 12118, "on yes": 12119, "inta": 12120, " the ex": 12121, " bi ": 12122, "tivities": 12123, " or inde": 12124, " in it": 12125, "cy and ": 12126, "ns compa": 12127, " and int": 12128, " fiha": 12129, " extent": 12130, "ناول ": 12131, "take it ": 12132, " or is ": 12133, "al situa": 12134, "ly into ": 12135, "has many": 12136, "tly and ": 12137, "arif ": 12138, "n which ": 12139, " we have": 12140, "al to ": 12141, "to that ": 12142, "adhi": 12143, "t it is ": 12144, "uncle ": 12145, " uncle": 12146, "at least": 12147, "whether ": 12148, "t it can": 12149, "factor": 12150, "ternal ": 12151, "alli": 12152, "saturday": 12153, "fair": 12154, "ana ": 12155, "sive": 12156, "frame ": 12157, " week ": 12158, "like a ": 12159, "al forms": 12160, "perio": 12161, " sid": 12162, "ruj": 12163, "spend ": 12164, "cuisine ": 12165, "search": 12166, "husb": 12167, "nd the": 12168, "wahi": 12169, "mdulilla": 12170, "sleeping": 12171, "قداه": 12172, " attitud": 12173, "tion 6 ": 12174, "الساع": 12175, " days ": 12176, "clause ": 12177, "re is ": 12178, " ama": 12179, "efore ": 12180, " co": 12181, "aking ": 12182, "gratu": 12183, "tone is ": 12184, "or metho": 12185, " resul": 12186, "ms that ": 12187, "shows a ": 12188, " confirm": 12189, " hus": 12190, "to make ": 12191, "alis": 12192, "he did": 12193, "ion now ": 12194, "lect 2 ": 12195, "g 4 ": 12196, "yis": 12197, "she has ": 12198, "that i": 12199, " act of": 12200, "راقد": 12201, "jib": 12202, "hing 3 ": 12203, "uff": 12204, "is a s": 12205, "erving": 12206, "as you": 12207, "lone": 12208, " ham": 12209, "knew ": 12210, "s its ": 12211, "soup ": 12212, "وقراطي": 12213, "الهي": 12214, "الكلام": 12215, "استثمار": 12216, "دنا ": 12217, " الداخلي": 12218, "نظوم": 12219, "بكل ": 12220, "قاليم": 12221, "نمشيو": 12222, "ion he": 12223, "فروض": 12224, "نفهم": 12225, "sile": 12226, "طراف": 12227, "بلدان ": 12228, "eyes ": 12229, "لقا": 12230, "عهد": 12231, "تجاوز": 12232, "ground": 12233, " raef": 12234, "حزاب": 12235, " gover": 12236, "news ": 12237, " اساس ": 12238, "s his ": 12239, " وثماني": 12240, "السيد ": 12241, " الاتحاد": 12242, "the man ": 12243, " قضا": 12244, "geri": 12245, "صحفي": 12246, "him and ": 12247, "روض ": 12248, "من عند": 12249, " العربي": 12250, " الوضع": 12251, " كل": 12252, "وعشرين ": 12253, "موقف ": 12254, "malika ": 12255, "ثماش ": 12256, "امكان": 12257, " scene": 12258, "اشكا": 12259, "فش": 12260, "وعند": 12261, "التوانس": 12262, " الثور": 12263, "شروط ": 12264, "بلوم": 12265, "anne": 12266, "تسع": 12267, "brid": 12268, "تونسي": 12269, "صفح": 12270, " شهور ": 12271, " hon": 12272, "prid": 12273, " ميزاني": 12274, "gy": 12275, "سياد": 12276, "شكال ": 12277, "reem": 12278, "القضا": 12279, "on he ": 12280, "freedom ": 12281, "مرحل": 12282, "هاتف": 12283, "chan": 12284, " die": 12285, "rgi": 12286, "his hand": 12287, " قانون ا": 12288, "داد ": 12289, "edom": 12290, " hid": 12291, " youth": 12292, "نواب": 12293, " الاول": 12294, "ypt": 12295, "ed him": 12296, "مادام": 12297, "فاع ": 12298, " هذه ": 12299, " sil": 12300, "يتكلم": 12301, "شغل ": 12302, "nz": 12303, " of this": 12304, " قانون ": 12305, " منها ": 12306, "في حال": 12307, "صدر ": 12308, "entr": 12309, " to his ": 12310, "despite": 12311, "ander ": 12312, " po": 12313, " vie": 12314, "the re": 12315, " هاديا ": 12316, "ed her": 12317, "lace": 12318, " هي": 12319, "اعلام ": 12320, "ion it": 12321, " طبع": 12322, "popul": 12323, "رجعو ": 12324, "ع عل": 12325, "lism ": 12326, " club ": 12327, "وماسي": 12328, "الشرك": 12329, "تراجع": 12330, "ountry": 12331, "mustafa": 12332, " التعب": 12333, " التشريع": 12334, "s means ": 12335, "جريم": 12336, " المحكم": 12337, " op": 12338, " ملف": 12339, "موعد": 12340, "tage": 12341, " الرسمي": 12342, " امت": 12343, "المواط": 12344, "rant": 12345, "قتصاد ": 12346, "power ": 12347, "road": 12348, "قلت لك ": 12349, "ide ": 12350, "loss": 12351, "حزب ": 12352, "سنوات ": 12353, " men": 12354, "with his": 12355, "حبس ": 12356, "alta": 12357, "العمل ": 12358, " متاح": 12359, "match": 12360, "symboliz": 12361, "against ": 12362, "iam ": 12363, " وستين ": 12364, " malika ": 12365, "ion i am": 12366, " وطني": 12367, "موال ": 12368, " تشري": 12369, "of them ": 12370, "olution ": 12371, "هذي": 12372, " office": 12373, "ativ": 12374, "on his": 12375, " sol": 12376, "غياب": 12377, "تثمر": 12378, "roups ": 12379, "became": 12380, " الواق": 12381, "dream": 12382, "stal": 12383, "شركات ال": 12384, " وتسعي": 12385, "وزير ": 12386, "نا لل": 12387, " انها ت": 12388, "iron": 12389, " ماهوش ": 12390, " news ": 12391, "ision ": 12392, " it was ": 12393, "qai": 12394, "مشاريع": 12395, " وضعي": 12396, "thinking": 12397, "موظ": 12398, "nora": 12399, "عبير ": 12400, " قضي": 12401, " الياس": 12402, "جمو ": 12403, " كفاش ": 12404, "on my ": 12405, "right": 12406, "ic and ": 12407, " dee": 12408, "اخدو": 12409, "خارجي": 12410, " he was ": 12411, "to his": 12412, " newspap": 12413, "داخلي": 12414, "لعام": 12415, " and عل": 12416, "hment": 12417, " became": 12418, "newspap": 12419, "ليها ": 12420, "تصاص": 12421, "الراجل ": 12422, "الفكر": 12423, " freed": 12424, "كنا ن": 12425, " tit": 12426, " جمهوري": 12427, " وحت": 12428, "عقو": 12429, "انتظ": 12430, "قروض": 12431, "is that ": 12432, "those ": 12433, "women ": 12434, "afra": 12435, "lent": 12436, "itle": 12437, "solu": 12438, " عديد": 12439, "وعد ": 12440, "tail": 12441, "زب ": 12442, "ion ما ": 12443, "ياس ": 12444, "burden": 12445, "ni means": 12446, "economic": 12447, "الانتخاب": 12448, " door ": 12449, "يشري": 12450, "veal": 12451, "جمعي": 12452, " نعملو ": 12453, "music ": 12454, "ديمقراطي": 12455, "واطن ": 12456, "ynamic": 12457, " even if": 12458, "raid": 12459, " بلد": 12460, "اظ": 12461, "ميع ": 12462, "iddle": 12463, " reson": 12464, " مرحبا ب": 12465, "maria": 12466, "بادر": 12467, "ظر": 12468, "up and ": 12469, " لم": 12470, "den ": 12471, " دا": 12472, " من بعد ": 12473, " في المي": 12474, " امام ": 12475, " dy": 12476, "society ": 12477, " انك ": 12478, "تمويل ": 12479, "متاعو ": 12480, " الدولي": 12481, " media": 12482, "اصلاح": 12483, "adnan ": 12484, "film": 12485, "قول لك ": 12486, "التي ": 12487, "استه": 12488, "اه اه ": 12489, "uthority": 12490, "متاح": 12491, "اهم": 12492, "wonder": 12493, " وزير ال": 12494, "يخلص": 12495, " in his ": 12496, "hit ": 12497, "ورا": 12498, " non": 12499, "lim ": 12500, "opport": 12501, "office": 12502, "unless": 12503, "mouth": 12504, "ion my": 12505, "ggers ": 12506, "اكبر": 12507, "نشوفو ": 12508, "spac": 12509, " party": 12510, "طرح ": 12511, "ظرف": 12512, "shame ": 12513, "need ad": 12514, "street": 12515, " withi": 12516, "ارض": 12517, "شل ": 12518, "gic ": 12519, " الحري": 12520, "must ": 12521, " teach": 12522, "ناه ": 12523, "فساد": 12524, "يا خويا ": 12525, "behind": 12526, "دهم ": 12527, "يولي ": 12528, " الحكم ": 12529, " العدل ": 12530, " benefi": 12531, "his head": 12532, "اقع ": 12533, "رهم ": 12534, " fel": 12535, "ais ": 12536, "ولوي": 12537, "bring": 12538, " وخمس": 12539, " that i ": 12540, "olitical": 12541, "جور ": 12542, " power": 12543, " مواط": 12544, "شكالي": 12545, "و شوي": 12546, "العمومي": 12547, "ub": 12548, "eng": 12549, "ases ": 12550, "راتيجي": 12551, " هذاكا": 12552, "قم": 12553, "laughing": 12554, "برا": 12555, "حمل": 12556, " السي ": 12557, "custom": 12558, "try ": 12559, "of his ": 12560, "and في ": 12561, "صعيب ": 12562, " بالمي": 12563, "نا ال": 12564, "موارد ": 12565, " هاكا ": 12566, "ريح": 12567, "الفلوس ": 12568, "جس ": 12569, " gui": 12570, " cir": 12571, "يجري": 12572, " الجماع": 12573, "ream": 12574, "cations ": 12575, "barras": 12576, "نعيش": 12577, "مناخ": 12578, "ped ": 12579, "قادم": 12580, "يقاف": 12581, "حداش ": 12582, "وغير": 12583, "ادر": 12584, "عام 201": 12585, "ومن بعد ": 12586, " mid": 12587, " unclear": 12588, "هياش ": 12589, " match": 12590, "ben ": 12591, "ion how ": 12592, " هاذيا ": 12593, "the ne": 12594, " الي ي": 12595, " دستور": 12596, " وقتها ": 12597, " married": 12598, " قرار": 12599, "لهنا ": 12600, "ibut": 12601, "ريع ": 12602, "قلنا ": 12603, "رير ": 12604, "منو ": 12605, "revolut": 12606, " cat": 12607, "when he ": 12608, "the bo": 12609, " pot": 12610, "جالس": 12611, " mr ": 12612, "بلدي": 12613, "algi": 12614, " اقتصادي": 12615, " هاذوما ": 12616, "wspaper": 12617, "eeper ": 12618, "هلاك": 12619, "at means": 12620, "ion its ": 12621, "بطاق": 12622, "ارقام ": 12623, " في اط": 12624, "اقتصادي": 12625, "و انو ": 12626, "hail": 12627, "سنين ": 12628, " فيما ": 12629, "زع ": 12630, "zen": 12631, "soul": 12632, "emotions": 12633, "and عل": 12634, "ارع ": 12635, "والي ": 12636, "visi": 12637, " 6 و ": 12638, "ion عل": 12639, "قاوم": 12640, " النهض": 12641, "ible to": 12642, "oga": 12643, "loved ": 12644, "ach ensu": 12645, " الدفا": 12646, "can": 12647, "tree": 12648, "اير ": 12649, "مجتمع ": 12650, "trus": 12651, "inside": 12652, " وقت لي ": 12653, "oetic": 12654, " الحالي": 12655, "حلول ": 12656, "مبد": 12657, "عرفو ": 12658, "financ": 12659, "ي refers": 12660, "ants": 12661, "همو ": 12662, "اللي هو ": 12663, "تحاد ال": 12664, "باد": 12665, "خدا": 12666, "بث": 12667, "و هو ": 12668, "ات ما ": 12669, " lin": 12670, "اساسي": 12671, "ثمانين ": 12672, "نعرفو ": 12673, " راجعين ": 12674, "قانوني": 12675, "alba": 12676, " autho": 12677, "pics ": 12678, "nons": 12679, "s him ": 12680, "ربعين ": 12681, "كات ": 12682, "ديسمبر": 12683, " hur": 12684, "حكينا ": 12685, "ما بين ": 12686, "fight": 12687, "ان الم": 12688, "za ": 12689, "سياح": 12690, "ub ": 12691, " قاعدين ": 12692, "الوطني": 12693, " للدول": 12694, "معدل ": 12695, " المحلي": 12696, "musli": 12697, "struggle": 12698, "و يت": 12699, "ives ": 12700, "تاش ": 12701, "curs": 12702, "مثال ": 12703, "البرلمان": 12704, "cing": 12705, " alha": 12706, "طيح ": 12707, "اطار": 12708, "قتصاد ال": 12709, "dynamic": 12710, "معار": 12711, "war ": 12712, "روميار ": 12713, "thousand": 12714, "quarter ": 12715, "رتور ": 12716, "باللاهي ": 12717, "urguiba": 12718, " peace": 12719, "go ahead": 12720, "عسلام": 12721, "sousse ": 12722, "كلاس": 12723, "cket": 12724, " level": 12725, "تكاي": 12726, "التران ": 12727, "the conj": 12728, "hospital": 12729, "losing": 12730, "اثنان ": 12731, "bless ": 12732, "teen": 12733, "tics ": 12734, "single": 12735, "fifty ": 12736, "mercy ": 12737, " quart": 12738, " six": 12739, " forget ": 12740, "priate": 12741, "trav": 12742, "gypt": 12743, " seven": 12744, " faith": 12745, "close to": 12746, "الحداش ": 12747, "lass": 12748, "كارت ": 12749, "ahead ": 12750, "ief ": 12751, "mirror": 12752, "in their": 12753, " remain ": 12754, " a borro": 12755, "nds ": 12756, "قطار q": 12757, "premie": 12758, " moder": 12759, "yit": 12760, "forgot ": 12761, "زيام ": 12762, "avel": 12763, " doc": 12764, "basi": 12765, "ashar ": 12766, " the com": 12767, "ordina": 12768, "tfa": 12769, " the two": 12770, " han": 12771, "ests": 12772, "sour": 12773, "ion for ": 12774, "sely ": 12775, "alys": 12776, "ماضي ساع": 12777, "accu": 12778, "siness": 12779, "rench ": 12780, "rbaa ": 12781, "stories ": 12782, "the ba": 12783, "omewhat": 12784, "error ": 12785, "دوزيا": 12786, "deal": 12787, "a al": 12788, "usto": 12789, " large": 12790, "itself ": 12791, "perform": 12792, "zer": 12793, "alam": 12794, " or de": 12795, "aware ": 12796, "oon ": 12797, " remov": 12798, " le": 12799, " apprec": 12800, "elev": 12801, "trast ": 12802, "ra means": 12803, "s a sig": 12804, "mili": 12805, "pair": 12806, " a desir": 12807, "when i": 12808, "unclear ": 12809, "afraid": 12810, "awar": 12811, " qit": 12812, "es a con": 12813, " ideas": 12814, "es to a ": 12815, " win": 12816, "ed in a ": 12817, " article": 12818, "ابس ": 12819, "ence or ": 12820, " fav": 12821, "anna": 12822, "s of the": 12823, "ically": 12824, "in and": 12825, " bal": 12826, "tick": 12827, "hrough": 12828, " a place": 12829, "band": 12830, "is som": 12831, "s to be ": 12832, "goodwill": 12833, "i can ": 12834, "me to ": 12835, " live ": 12836, "likely a": 12837, "bourgui": 12838, "on her": 12839, " serious": 12840, " organiz": 12841, "giving": 12842, "or add": 12843, " change ": 12844, " waiting": 12845, "stands": 12846, "on it ": 12847, "and its ": 12848, " kil": 12849, "forgive": 12850, "dour": 12851, " dynamic": 12852, "nd and ": 12853, "suffer": 12854, "sfax": 12855, "fessio": 12856, "doctor": 12857, " fif": 12858, "ent and ": 12859, "posed to": 12860, "t where ": 12861, "ications": 12862, "success": 12863, " no one ": 12864, "and he": 12865, "anal": 12866, " go ah": 12867, "qadda": 12868, "profe": 12869, "circums": 12870, "goal": 12871, "der to": 12872, "achiev": 12873, "saba": 12874, "uq": 12875, "sevent": 12876, " miya ": 12877, " return ": 12878, "ion who ": 12879, "just a ": 12880, "reache": 12881, "nick": 12882, "jar": 12883, "on your ": 12884, "forget ": 12885, "amount": 12886, "im here ": 12887, " picture": 12888, "phrase ": 12889, "either": 12890, "receiv": 12891, "jum": 12892, "expected": 12893, "earch": 12894, "ral sig": 12895, "implicat": 12896, "ghir": 12897, "classi": 12898, "oal": 12899, " تفض": 12900, " kept ": 12901, "giveness": 12902, "me this ": 12903, "ancial": 12904, "alsa": 12905, "welcome": 12906, "تونس tun": 12907, "imal": 12908, " looks ": 12909, "official": 12910, " shift": 12911, "request ": 12912, " nos": 12913, "nto ": 12914, " voice": 12915, "rations ": 12916, "media ": 12917, "isian ": 12918, "france": 12919, "flic": 12920, "surround": 12921, " freedom": 12922, "it ac": 12923, "or a lot": 12924, "tion its": 12925, "atory ": 12926, " stop ": 12927, " welcome": 12928, " closel": 12929, " perio": 12930, "ion as": 12931, " env": 12932, "may you ": 12933, "yujad": 12934, "pain": 12935, "m to ": 12936, " broader": 12937, "qar": 12938, " specifi": 12939, " dur": 12940, " zouz": 12941, "impa": 12942, "audience": 12943, "ield": 12944, " contain": 12945, " spiri": 12946, "yful ": 12947, "potent": 12948, "eg ": 12949, "or pro": 12950, "means it": 12951, "almu": 12952, "anyone ": 12953, "issues ": 12954, " tick": 12955, "فص": 12956, "heart ": 12957, "heri": 12958, "of and": 12959, "ier ": 12960, " sea": 12961, "abov": 12962, " afric": 12963, "timing": 12964, " named": 12965, " ties ": 12966, "ies and ": 12967, "icket": 12968, " ca": 12969, " team ": 12970, " a f": 12971, "wants to": 12972, " and في ": 12973, "ograph": 12974, " frame": 12975, "areness ": 12976, " a conj": 12977, "d more": 12978, "ilos": 12979, "extr": 12980, "focused ": 12981, " gave ": 12982, " who are": 12983, " fight": 12984, "s might ": 12985, " asked ": 12986, " to make": 12987, "waqta": 12988, "nostal": 12989, "ry of ": 12990, "midd": 12991, "master": 12992, " must ": 12993, "letter": 12994, "yer": 12995, " arb": 12996, "or of ": 12997, " an hour": 12998, "quantity": 12999, "ion في ": 13000, " hold ": 13001, "ddle": 13002, " depth": 13003, "poetic": 13004, " include": 13005, "club ": 13006, "curacy ": 13007, "picture ": 13008, "elli": 13009, "lend": 13010, "thirty": 13011, " ble": 13012, "passed": 13013, "sant": 13014, "ncy ": 13015, "ease ": 13016, "summer": 13017, "illustra": 13018, "regre": 13019, "tour": 13020, "nced as ": 13021, " finan": 13022, "حد عشر": 13023, " idiom": 13024, "العشي": 13025, "ion كان ": 13026, "illed": 13027, "cause ": 13028, "reaction": 13029, " you see": 13030, "alq": 13031, "itment": 13032, " statu": 13033, "tential ": 13034, " quick": 13035, "establ": 13036, "human ": 13037, "ed as a ": 13038, "gress": 13039, "mata": 13040, "pact": 13041, "amar": 13042, "نان ithn": 13043, "gu": 13044, "trea": 13045, " behind": 13046, "متاع mta": 13047, "pur": 13048, " sub": 13049, "كي means": 13050, "commit": 13051, "ed is a ": 13052, "phil": 13053, "tempor": 13054, "as and": 13055, "harm": 13056, "uz": 13057, "tifica": 13058, "stairs": 13059, "riendly": 13060, " a frien": 13061, "c to the": 13062, "uffix": 13063, "orm ": 13064, "eeling": 13065, "برجولي": 13066, "exactly ": 13067, "adds a c": 13068, "t if you": 13069, "ليوم il": 13070, "ar this ": 13071, "wala": 13072, "t this t": 13073, "سخان": 13074, "to talk ": 13075, " provid": 13076, "tever": 13077, "esh ": 13078, "ndeed ": 13079, " whate": 13080, "نشري": 13081, "anta": 13082, " a famil": 13083, "form can": 13084, " or oh ": 13085, " cuisine": 13086, "parts ": 13087, "اخبار": 13088, " السلام": 13089, "method": 13090, "emoj": 13091, "شيت ": 13092, "develo": 13093, "py": 13094, " فارغ": 13095, "نحكي عل": 13096, "فينا ": 13097, "ما عنديش": 13098, "best": 13099, "طلعت ": 13100, " السبت ": 13101, "عندكم ": 13102, "ول الله ": 13103, "دكتور ": 13104, "تقرا": 13105, "نيك ": 13106, "حاضر": 13107, " يخرج ": 13108, "نستعمل": 13109, "load": 13110, "براهيم": 13111, "كوجي": 13112, "نوم ": 13113, "ابدا": 13114, "elec": 13115, "نقرا": 13116, "هيل ": 13117, "سهل": 13118, "حضر ": 13119, "cens": 13120, "now lets": 13121, "اكيد": 13122, "ه بعد": 13123, "فطور": 13124, "htt": 13125, " طول ": 13126, "هذك ": 13127, "echnical": 13128, "ه تع": 13129, "حلاها ": 13130, "سامي": 13131, "نهج ": 13132, " جماع": 13133, "رنامج ": 13134, "خاطر ": 13135, "وسهلا ": 13136, "oper": 13137, "قلق ": 13138, "معاها ": 13139, " repor": 13140, "فوت": 13141, "يه عل": 13142, " شعر": 13143, "كحل": 13144, " كعب": 13145, " ضحك": 13146, "ack": 13147, "lice": 13148, "ش عملت": 13149, "مزيان": 13150, "حاضر ": 13151, "كل نهار": 13152, "سمعت ": 13153, "رتاح ": 13154, " عليكم ": 13155, "قاعده ": 13156, "كي ت": 13157, "ويكند ": 13158, "msa 3 ": 13159, "استا": 13160, "ولك ": 13161, " يظهرلي ": 13162, "ينك ": 13163, "ng with ": 13164, "حلقه ": 13165, "مورك": 13166, "تقاب": 13167,
[...]
